-26
-22
2A
-29
-14
-E
26
-24
-30
1B
0B
14
-29
11
-17
29
22
-21
45
37
03
-F
11
21
02
-28
-A
15
0E
17
-10
00
17
-16
32
-1E
-25
03
19
22
00
00
-19
-E
-32
-35
-3B
19
-1E
-1F
-28
1E
1A
-D
29
-1F
1D
2C
-9
27
14
00
24
-2C
-D
-9
4A
10
2F
17
-13
18
-F
-38
74
2A
-11
-37
00
04
-15
18
06
43
3B
-1
07
0D
-33
-5
45
52
-5
-12
-3A
-1C
0E
-3
18
45
33
-18
05
05
0F
-44
76
1F
1A
-1C
-A
00
-3B
00
53
26
18
01
03
00
18
-23
22
18
-15
-1
-F
-1D
-30
02
-13
-17
0C
00
2D
21
17
0B
13
1F
-25
11
06
2A
32
04
-8
-11
-A
-25
-4B
08
-19
12
27
-C
19
-B
-20
-33
07
0C
2D
18
18
-19
0E
2E
-30
28
28
04
-25
-41
08
4C
-11
-33
06
-13
1A
-29
-B
-26
-17
-6
-2
-2D
20
15
01
-22
57
-20
43
0D
12
-34
-1E
43
0C
-1E
33
2D
-19
16
05
-2
23
15
2D
27
-43
-2B
-13
30
10
04
-A
3D
-2D
27
-1B
-10
59
12
0B
-14
29
09
-1F
17
-D
-2
1E
2F
1E
1E
-36
-44
-F
-1E
17
19
04
-30
-5D
-22
-32
0A
02
-C
10
3B
-11
-25
-22
0D
27
-11
16
29
23
-28
00
-3
29
-2A
-3A
-1
-9
45
33
-E
45
-1F
-3F
-35
-42
23
12
-26
-21
01
1D
00
-1
14
-1D
12
-8
18
0C
33
32
32
-C
1D
0C
-1B
-26
-48
-2B
2F
2A
-26
-18
-31
-18
09
11
0E
-17
27
15
0C
-17
-28
1B
2A
36
2E
24
09
-24
-C
-2B
1F
1F
-35
53
1E
-8
39
-5
-3B
26
24
19
08
0D
-34
-22
-1D
-6
-15
00
3C
48
2A
-13
-4
4B
25
2F
-1A
-70
-3D
-26
-1C
1E
-A
52
-12
-28
08
-2A
-2E
08
01
3A
-2
18
-53
-46
14
-36
24
3D
45
-C
25
0C
05
15
02
32
1B
-17
-1F
10
01
-A
-13
0F
-21
-30
07
-11
-33
-23
-9
-30
23
0A
2C
-2C
33
-8
-8
-26
04
-F
-19
04
1E
-13
00
1A
03
-49
-32
08
-6
-1B
-6
-22
28
-21
-13
-37
1F
26
-27
-3E
03
-1E
12
-22
22
-17
1B
1E
-17
-2
-9
-12
-4
2B
32
-1C
18
15
-14
-21
05
22
-17
0A
33
-43
-19
-E
12
03
4E
29
16
15
-5
2E
3A
-2D
18
-4B
3A
-23
-18
-15
2E
3D
-14
-20
-24
52
2A
-27
1E
09
-2B
-17
-25
-A
14
-49
-17
-14
-1
-10
35
-11
09
-10
32
19
1A
0D
21
-9
-2B
04
47
0D
-4D
0A
-1
-29
17
-29
-1
-30
0D
-33
-22
-2B
-18
-20
08
-23
08
-45
-10
20
16
-1B
1C
-9
-5
08
00
-1E
-1C
-B
12
-1F
-1B
37
21
-47
06
-8
-18
-13
26
-2A
2F
02
-4
-13
1F
00
-17
-13
0F
27
0E
-3E
00
-14
-1F
-E
-28
-21
09
12
0E
-13
43
-14
0A
36
-19
-1
-6
-10
-35
-5C
03
-D
2B
-31
35
-11
-15
1A
51
-17
-D
15
54
11
-15
-4C
7B
-F
-C
-24
30
0F
1D
0D
-A
44
29
16
-33
-28
-30
-3B
39
00
22
-4C
-6
45
07
-10
29
25
-9
-A
45
-D
13
-38
5E
-3F
2B
-3
49
-5
-34
31
-43
03
-1
13
29
-8
-15
-12
14
0E
-1F
-2D
38
21
-9
01
27
04
-F
-3E
-26
-22
-5
-39
24
23
24
-25
2C
-E
-23
47
-20
-3A
-24
14
2F
0A
1E
-1D
24
-3
-34
-1C
37
-7
-17
0B
00
-16
-F
-39
-24
-A
-4
01
00
10
23
1B
15
-6
32
4E
14
-6
05
-1A
3B
-17
06
-F
-6
-1A
36
-47
-20
-41
37
-B
38
03
-5
-13
4F
-2E
00
-34
53
-20
4D
-2B
21
01
03
23
36
-1F
14
-E
-40
-2B
-38
-45
-C
-43
-D
-12
-8
26
27
0A
47
06
00
00
-1C
-F
-40
-1E
2B
-2B
-18
-36
2A
24
0F
-3F
22
-4
-9
-25
03
-20
2B
-4
-C
-B
00
-D
-11
0C
-1B
-2A
-14
-13
26
-1
1A
39
-3D
-43
22
-C
0D
1C
-2B
-16
33
-12
03
-4
-32
-18
-25
-B
1A
41
0A
-37
-56
08
32
-19
-3A
0A
-16
27
36
-18
0E
39
-20
-11
-1
13
-20
29
-8
17
24
07
-19
-A
16
4C
27
10
-8
-49
14
-2
-A
-4
-31
0F
-19
-16
4A
-6
0B
41
-5
-B
-19
-27
08
-C
-1D
-37
06
-13
-E
25
04
29
10
14
-26
0D
-15
-38
-16
-4
04
-37
-46
-33
0D
-6
3E
26
0B
1C
1A
09
-3A
03
13
-B
-35
20
43
-21
-14
-1C
-5
0E
-43
11
-35
-7
-17
-1B
2B
-5
00
00
-1F
10
3C
07
06
1B
07
3C
2A
36
-17
17
23
03
11
20
22
13
35
3F
02
05
-45
36
01
-39
35
31
14
-54
-4C
04
31
-15
1C
-18
-23
-D
-1D
36
10
21
-24
0D
-2D
26
1C
-D
-2B
-1E
2C
-B
12
-30
32
2F
-2C
0D
-7
10
02
08
38
-2B
1C
2C
14
-36
-1
04
07
15
2C
2F
11
-19
63
-2C
-E
-19
1B
-22
5D
2A
-2
-D
28
3C
-20
19
-16
-37
18
01
-9
-1B
0C
2F
06
20
18
38
37
19
1A
26
-B
-5F
65
0B
-9
05
-3
15
2D
38
-3E
09
13
-34
12
0A
0E
37
-2E
04
-A
14
-20
-3
4F
-16
-2
-B
1E
-3
01
-17
-2B
-A
10
-6
-23
08
18
0C
04
13
-2C
-30
-9
-D
-11
-12
26
16
-15
-47
-35
-3A
29
-1
43
-A
07
-F
-21
-12
-1B
-24
02
10
-11
11
23
07
16
21
6B
50
0F
-6E
1F
16
00
21
-23
-37
11
09
-4
06
22
1C
08
05
43
1C
00
20
3C
04
-15
-23
67
16
17
06
41
-A
4D
55
30
-5F
2B
1C
0F
08
00
-4
36
-2D
03
-1F
1D
04
2F
-4B
2B
23
39
10
48
-17
-22
-37
41
-13
20
-18
-12
