08
-F
20
0B
1B
-20
-D
01
-13
-21
03
09
-19
1E
-10
-A
02
15
-B
00
-7
03
03
-A
00
14
-C
04
04
-1
-2
-8
02
03
01
-9
-B
00
01
-1
-A
-8
04
-2
00
02
08
00
09
-A
0E
-8
12
02
-D
04
-A
-9
05
-7
-7
02
-7
-4
01
13
09
00
0C
07
07
-5
-6
08
05
-1
10
-A
-2
-2
-4
15
-1F
-8
-1E
0B
03
01
-5
0D
-E
00
07
-1A
0A
03
-7
24
-23
08
-21
30
-7
07
01
2C
04
07
27
-25
-12
01
-7
-23
1F
-1
11
-14
-8
-D
-6
-20
-D
-7
-1E
16
-10
00
-A
21
-25
00
-11
22
0A
03
-6
27
01
09
26
-16
00
-6
07
13
09
-7
0A
23
-A
03
-5
20
05
03
24
-10
00
-9
03
-15
23
03
22
-10
-2
-4
-4
-16
-1
-3
-15
0E
01
-7
00
-14
12
-6
0A
-5
-A
-B
-3
-C
-6
-9
-14
1F
-5
01
-A
05
07
-7
0B
-3
08
-6
-8
-3
09
06
03
09
09
-4
05
02
01
01
08
-1
-7
06
-12
15
-7
-1
0F
-C
03
-C
-5
11
15
-5
0A
0A
05
00
-D
0C
00
02
04
08
-8
-5
0A
-26
1E
07
2B
-29
-D
00
-9
-2A
-A
00
-23
35
-C
02
-2
-4
00
-7
00
01
03
07
00
-8
-9
00
-A
0E
-9
00
-7
06
-A
-6
-1A
06
-9
-7
09
0C
-A
07
0E
-11
-14
-5
-3
-21
0C
06
0D
-22
-F
-7
-7
-19
-F
07
-17
1C
-E
-5
-2
-19
0F
00
0D
-13
-2
00
-7
-1C
-E
-2
-1A
16
00
-C
02
04
08
07
0F
01
0A
-3
-E
09
05
03
01
-3
01
06
00
-25
11
-7
0F
-1D
01
-B
-8
-D
05
-3
-D
1A
09
02
08
-4
04
0A
-5
-B
-B
02
-2
04
-9
-A
-E
11
00
09
-1
-1
07
02
12
-16
-1
-9
-7
-12
00
-9
-D
0F
00
-A
08
04
07
-3
-8
-9
-A
03
-E
01
05
-2
0C
-3
07
-1
01
22
-1E
-C
-1
35
04
-9
-C
27
-1
08
2A
-30
02
09
-6
39
-22
01
-27
38
01
02
-4
41
-B
-7
3D
-37
-4
-8
-B
00
02
-3
-3
-B
-B
-2
03
-11
-7
-9
-12
0D
-1
03
-3
-5
05
-3
04
0B
09
04
01
09
-9
-A
02
-6
-6
-A
-4
0E
03
-2
00
0A
02
-C
06
12
-C
05
0A
-6
08
-4
-B
06
00
-9
12
0A
04
-A
-7
0F
-A
08
0B
-2
-4
-1
04
-16
17
-8
12
-14
-A
00
03
-C
-8
-A
-14
1B
-A
01
-8
09
-5
-1
03
-3
-C
03
-C
06
00
02
0B
-2
-10
-8
-8
19
-D
08
-23
29
03
09
-E
16
-3
-1
1B
-1E
-16
00
-5
-1
13
02
-5
-5
00
08
08
-7
-4
-3
-1
05
01
05
-A
09
01
00
02
-1
-1
-6
-C
-4
-1
-9
-2
08
-5
03
-5
04
02
02
01
-1
00
07
01
0B
-B
01
0D
-4
-1
-8
05
05
00
-3
-13
-1
03
-2
0B
13
-B
06
03
-6
-4
-A
-3
26
-10
03
-12
21
-8
0A
-8
1F
-3
06
22
-E
0D
06
01
00
-8
-3
-A
-9
-F
-6
00
09
-C
-7
04
07
-10
02
0A
14
-17
-A
-16
08
-E
03
0B
14
-3
06
08
00
-8
09
-7
32
-1D
07
-17
3F
-3
-A
-E
38
08
-5
35
-34
0F
09
02
08
04
-7
04
0B
04
06
02
00
05
05
11
-10
-1
07
-7
00
-5
-6
-6
05
04
00
-3
03
-A
-3
0B
-6
03
00
05
00
09
08
-5
02
0A
-9
03
05
02
-1
0D
-9
07
-B
06
10
-D
09
01
16
-9
-7
-2
11
-A
00
16
-2
-D
-4
06
12
00
-8
-3
13
-1
02
-6
0A
04
-A
07
-7
00
-A
08
-F
17
-5
16
-1C
-7
-D
-10
-1F
-E
-3
-22
23
-2
05
08
0D
-2
02
-C
0E
-9
04
-D
01
01
0D
0F
-11
-18
-2
-6
07
-5
06
-C
04
02
-D
00
07
00
-9
02
-9
-A
-9
-2
-23
12
04
09
-11
-A
-7
01
-13
-5
-9
-24
29
02
09
09
-9
14
07
09
-A
-11
-2
-11
-6
-6
-8
-12
10
03
-3
-B
-B
12
05
18
-A
05
-A
-2
-3
-D
00
-F
03
-6
05
-5
0D
00
-6
-1A
0E
-5
07
-B
00
01
-9
00
-E
09
05
03
28
-22
-A
-11
33
-6
08
-3
3C
08
00
32
-26
09
-8
-1
-C
15
-4
05
-F
-1
-7
-9
-18
-C
01
-9
0F
04
-A
-A
1F
-1F
09
-31
20
-C
-D
-C
21
-3
-A
28
-17
-3
07
-2
45
-29
-B
-17
39
04
-2
02
32
-3
03
3B
-3A
0D
-7
03
22
-18
03
-D
29
-C
03
07
2C
-7
00
2B
-1B
-3
03
-1
-D
-C
-B
-A
06
-11
08
00
08
-E
04
-2
03
-6
00
0A
02
02
-9
04
00
00
00
05
0C
05
05
0F
04
02
-2
00
17
-9
-5
-6
0F
-5
00
-B
08
00
09
1C
-6
02
-1
0A
0C
03
03
0A
08
06
-B
-9
-1
-9
00
08
-4
06
-1
02
-15
0C
-A
10
-18
-3
-D
-13
-1E
-7
04
-10
10
-6
-3
02
0D
-A
05
-12
0E
-7
-D
-5
0E
-C
-1
02
-9
-6
07
-2
00
-2
04
-A
-1
-2
00
02
-7
-4
09
07
-3
-8
-9
03
06
-3
09
-4
-4
-6
07
-4
-2
-7
03
06
00
01
-5
-B
-4
07
-1
07
-B
-F
05
-4
-6
00
-6
-16
11
-3
09
01
06
13
00
06
05
-6
-B
-F
-5
0A
-6
-5
-3
06
-2
-3
-6
13
05
-14
05
03
-8
-11
02
-4
-5
-5
01
04
-5
01
37
-19
05
-A
3F
02
00
-8
39
02
05
30
-20
08
-3
00
-A
-3
00
-D
-D
-3
07
00
-9
-A
-2
06
-1
-C
-9
06
18
-1F
03
-21
27
-5
-C
-6
1F
-7
-B
21
-25
-B
-5
-4
32
-23
-A
-B
30
08
-8
-B
2E
04
00
2C
-2F
0F
-2
0A
09
-2
08
-5
14
05
-A
-6
07
05
07
19
-7
-14
01
-1
0D
-14
-6
-17
-2
-4
00
-A
06
00
02
07
-4
05
-C
-4
13
00
-2
0A
06
07
-2
-3
10
-A
01
0B
-7
-A
-3
-7
-2
-6
-9
-2
0C
01
-8
-16
-1
01
08
-1
-1
-F
01
-5
00
0B
-6
0D
03
-2
-4
-1
07
00
01
05
-B
-1
-4
04
-1B
26
07
19
-1D
01
00
-A
-1F
-6
-A
-11
22
-2
-9
04
0E
-12
04
-10
15
03
-8
-10
10
-D
04
10
-2
-4
-7
05
11
-15
-4
-1C
0F
-11
-8
-2
0C
-4
-1
07
-9
-1
-4
01
-11
-A
08
07
-D
-3
01
00
06
-B
04
-5
07
0B
00
-9
09
01
-B
-E
09
-1
05
00
05
-7
-5
09
-1
-A
08
00
0D
02
-9
-A
07
-8
03
-7
01
-F
-C
0B
-8
-1
-6
-3
04
05
06
01
-9
02
03
00
-E
-E
07
-7
0E
06
06
-3
19
06
02
1C
15
-A
-A
-3
13
07
-3
17
-6
0F
0A
00
-9
09
-A
02
-14
-8
-8
-10
00
-6
-3
-C
09
-E
-1
09
08
-14
-1
-17
04
00
05
-7
02
-B
0A
01
-1
-E
06
-7
10
-3
-D
07
1D
07
-5
-1
17
09
-9
1C
-10
1F
-3
-6
14
-F
08
-1E
11
06
07
-2
18
-6
-3
06
-12
-15
-7
07
08
-17
-A
00
06
-E
-9
-D
12
-4
01
10
00
0C
-3
-3
06
-6
-8
-1
06
-6
04
-7
0B
05
04
-1
-9
-A
-C
04
0B
02
-5
-2
00
00
-6
-D
09
-D
-3
10
08
00
-3
00
0B
0B
03
0C
03
00
-9
-A
06
-9
-8
0D
00
-4
-8
-7
-2C
28
00
35
-31
-7
01
04
-17
-D
-8
-25
2D
00
0B
-6
06
03
-A
06
-A
01
00
03
00
-D
04
09
08
-B
-A
06
20
-15
-5
-16
1E
-11
-2
-3
1E
-A
-2
10
-C
0A
-7
-4
-1D
-4
-4
17
-15
-D
-8
-9
-B
-2
-A
-19
1B
01
09
-3
08
-12
05
-6
-3
-8
-2
01
-4
-5
00
03
-5
0B
-1
04
0E
00
07
-4
01
-7
03
-C
-5
-3
-7
08
06
06
-2
-4
08
13
03
0C
06
-2
00
-13
00
-8
-6
-9
0E
-7
02
08
03
0F
09
1D
01
-8
04
-7
0D
03
00
06
-5
13
0A
08
-4
0A
-B
08
02
-2
04
-E
-A
-B
00
-C
0D
-C
-A
04
00
-6
-B
-F
-2
-D
-6
-3
03
03
-3
13
-4
-A
-2
00
-6
0E
-6
0D
-5
-B
-9
02
04
0A
-3
06
0D
13
-2
05
0C
00
-9
-7
08
00
-4
-3
0F
03
05
09
-3
-17
-5
09
-F
09
00
11
-17
-1
-6
-10
-16
00
00
-C
1E
01
-1
-A
0E
-6
-1
-4
05
-7
-4
03
07
-B
06
0D
03
03
04
0A
0A
-A
00
08
08
-7
-2
-14
0C
01
04
-1
00
-3
02
-7
08
0D
-A
04
06
05
00
-7
0D
-D
-8
00
-9
-1
-2
00
-23
1F
-C
25
-22
-B
02
-13
-18
04
-5
-23
21
03
-7
-A
-B
00
-7
05
-13
-B
02
-1
-A
-E
07
-9
09
-4
06
-1
0D
-6
00
01
0A
00
0A
-B
-1
-3
04
-1
-4
-5
03
-3
-18
1B
00
26
-23
-B
04
-2
-1A
-D
-6
-22
1D
02
-7
-8
00
-17
04
-2
-6
-D
-8
02
-2
-9
01
-5
-6
02
-9
04
08
-D
08
-6
03
-9
-3
02
12
05
-3
0C
00
-8
-C
04
03
0D
02
07
11
-9
00
-12
0C
-2
-2
0A
03
-3
-1
-8
-5
2B
-9
2D
02
-A
-6
06
-A
05
-2
00
11
15
-3
-5
00
06
-5
07
0C
-6
-D
-2
-1
-4
03
04
-1
01
07
09
0E
-12
-7
-15
0E
02
04
00
0E
-D
05
18
-10
-9
02
-B
1B
10
-C
0E
18
-2
08
-3
0D
04
-1
1B
-9
06
04
-6
00
-C
06
-1
-10
-4
-7
06
-3
-E
01
09
08
-12
-A
-8
06
01
-4
16
-B
-4
01
-8
-C
-4
-6
-E
0A
06
-5
-6
02
-4
05
-7
-A
05
03
03
08
0A
07
00
-9
-5
-5
0B
-8
09
-6
-3
-B
02
-7
-F
04
-B
08
00
07
-8
03
00
03
-5
02
02
-3
-B
-C
-B
03
-B
-A
07
-1
-10
07
00
-C
28
00
25
-17
-E
-6
-6
-15
00
08
-9
1C
09
08
-5
00
06
-8
-15
04
01
-2
-C
04
00
04
-7
04
-18
-6
-1
00
-10
-7
-8
01
-10
-6
-F
0C
0B
-E
09
-13
-3
-C
0A
09
10
01
1B
11
-D
0A
-6
-4
-6
-1
0A
08
01
06
08
10
-1D
02
-16
0B
-B
07
-6
0A
-8
03
14
-C
07
-6
07
-4
-3
-3
00
02
05
-6
-2
-9
-A
-8
03
05
-D
-A
03
21
-2B
-2
-1D
12
-1
-2
-8
26
06
09
21
-17
0E
07
0A
10
-1
-1
05
0D
-5
-9
-7
0E
0A
09
17
-2
24
00
00
0B
-8
02
-1C
0E
-A
-3
-D
0B
-B
04
0F
-F
06
-C
-7
1E
-25
-7
-21
07
00
01
-F
19
09
-3
0A
-14
-6
09
08
20
15
-B
09
1F
01
05
0E
1F
-A
-B
27
-15
1F
00
05
-5
0A
00
09
08
02
00
06
-9
00
-5
01
0B
-1
08
-A
-B
-5
00
0C
-2
00
-6
-B
-5
-A
-2
01
0B
0D
-3
03
-1
02
-9
05
06
03
05
-6
0B
-A
00
0F
-9
02
04
01
-9
01
06
-7
-7
-7
-5
-7
-B
-F
06
00
00
-2
-B
05
03
12
07
0F
-4
05
00
07
-E
04
00
-4
08
-E
02
-6
0C
01
-6
11
1C
-A
05
-B
0F
-1
0A
09
-5
12
-2
-A
01
-9
06
-5
-2
00
-3
-E
-4
-D
0C
00
06
-16
-6
05
1C
-18
-4
-1F
25
01
-4
-2
15
-B
05
24
-10
04
-A
08
04
00
04
0B
00
-6
07
-2
02
-A
02
07
-3
24
-5
-2
-C
08
-4
00
-C
-C
03
-B
-B
-F
01
-A
16
-4
04
05
-16
0F
-5
11
-E
-3
-4
-2
-A
02
-1
-6
0A
-C
-2
05
11
-28
-9
-1A
0D
-2
-A
-1
20
-3
06
11
-D
02
02
-7
26
-2E
01
-19
18
-7
-3
-1
18
-4
02
12
-10
0B
01
-8
-C
04
-A
-1
-9
-5
-E
-3
02
-8
-1
-C
08
-7
-B
02
0D
-24
02
-26
11
-9
-E
-A
0F
-8
02
0E
-F
-4
-1
-6
42
-1F
-A
-15
3F
-10
03
-2
43
07
03
38
-30
0E
06
-6
02
-3
09
00
05
08
-5
-E
05
-E
-7
05
-3
-10
-4
-4
-13
19
-C
0A
-8
-6
-D
-13
-C
-7
01
-11
22
02
-1
-7
0B
-8
-A
04
05
-D
00
-D
02
-3
00
05
00
03
-2
-1
01
-7
08
01
-1
00
00
-3
00
-6
-2
00
-8
-1
06
-2
-3
11
03
00
0A
00
-3
-7
0C
-7
03
07
02
01
02
06
18
-2
-D
01
0A
-7
-8
-9
0B
-F
-3
06
-1
00
00
05
02
07
-9
0A
03
-3
-8
-F
-C
01
08
-1
00
-1B
-3
-B
07
-14
02
-27
05
-4
04
-11
07
04
04
10
-B
00
01
01
-A
13
-A
2D
-14
00
-1
-D
-B
07
-4
-6
1A
1D
-9
01
11
-3
04
-1B
01
-3
-7
-4
09
-B
08
0D
-A
-14
00
01
08
01
-A
0A
02
05
-5
-11
-3
-1
03
00
-2
-3
-7
04
27
-22
-2
-26
19
05
-B
-C
26
01
-3
13
-11
0B
-6
0A
2B
-22
-5
-35
32
-9
-1
-7
24
09
-4
2A
-2D
14
-2
01
05
-2
-4
-C
04
-6
00
00
-5
-6
05
03
-1
-4
05
-2
1D
-19
00
-33
10
-B
-5
-1
25
-F
03
1F
-23
03
00
00
4C
-21
-3
-1A
48
-1
01
-9
49
00
-A
40
-41
15
-3
-8
07
-A
01
0B
04
-2
-4
-1
0C
02
-B
11
-F
-7
-9
08
03
-9
06
00
-4
-7
05
-12
-B
-4
00
-8
07
-1
03
-8
0F
-5
08
-1
0B
08
00
-6
-3
-9
-B
0A
-3
-A
01
-9
00
-D
-6
01
0A
08
09
-6
11
-B
02
13
-2
-2
03
01
0B
06
-7
11
11
-4
02
-4
07
-10
-9
07
-A
05
-4
-5
00
0F
-2
0A
10
-7
06
01
05
00
-4
09
08
09
-C
-8
0A
-3
07
04
03
-6
00
-5
-8
03
06
0A
-3
-7
-1
06
00
-12
-9
-21
-7
-8
-8
-8
00
-1
-1
-9
05
-D
-8
07
-10
0E
-A
0C
02
-4
-8
-4
-D
-3
-3
-9
1B
09
04
09
16
-29
-A
-21
22
-3
-4
-9
1B
06
06
13
-20
-11
00
08
03
04
00
-1
04
-5
-1
02
0B
-8
-7
0B
03
-6
-8
-5
1F
-23
-6
-36
0E
-1
-5
-8
23
08
-C
19
-17
-E
08
0A
07
-18
01
-1D
10
-C
-4
-3
00
-3
-7
0D
00
14
01
08
06
-F
-5
-1E
03
-D
-3
-B
06
-6
-B
19
-5
-15
04
-7
17
-2D
-4
-21
13
-3
04
-10
13
-7
-A
1C
-1C
-11
-1
-8
42
-1F
-8
-27
37
-11
-1
-3
45
08
08
38
-34
21
05
04
09
00
-A
00
0D
-6
03
-7
1E
-4
-5
18
-18
05
-A
-B
01
-17
-7
-F
02
-F
02
-10
09
06
04
00
02
-4
-4
-9
17
-8
00
-3
06
07
-2
-5
0C
-2
-A
0C
-18
04
-1
-2
18
-15
-9
-B
1B
-3
-4
-7
1C
-C
06
12
-A
-8
-6
00
07
11
07
06
-1
00
03
00
05
-B
-A
0D
03
05
-C
-5
0D
01
02
-6
0F
00
00
-14
00
-8
07
-3
-6
0A
-1
00
02
05
02
05
00
02
07
-3
-6
-8
-8
-6
06
-12
03
05
-23
1C
05
0C
-21
-4
-5
00
-2A
-A
-7
-29
24
-E
-3
-7
-17
18
-8
13
-29
-4
05
-C
-26
-A
-5
-20
1E
13
07
04
18
-3
07
-10
1B
-A
-D
-A
12
00
08
1B
-14
-A
-A
-6
0D
-13
01
-5
0D
01
-2
-5
13
04
08
1C
-12
02
-6
-1
31
-39
-2
-2E
27
-E
01
-14
35
03
00
33
-2C
04
09
06
-C
-C
00
-5
-12
-8
02
-A
-E
0A
-5
-1
0D
-5
00
-A
0E
-18
-8
-12
05
-A
02
04
0D
-4
-A
0E
-8
-11
07
-2
30
-2A
-8
-30
22
-B
-D
-E
2E
-8
06
39
-34
-2
00
-5
1F
-1C
08
-19
2B
-A
-4
-3
21
07
-7
16
-1F
-1
-6
-9
0F
00
-B
00
08
02
-9
0C
15
-D
05
16
-12
-9
00
-5
-5
-8
-4
-E
-C
-2
01
03
-F
-3
-C
-D
0E
-6
-4
06
0D
-F
02
03
0D
-6
-5
-3
0B
-C
09
0E
-5
01
04
-B
10
0B
06
-3
00
-2
-6
00
02
-B
01
11
-D
06
02
-A
0D
00
03
01
0B
09
-7
01
14
-2
-2
14
04
-6
06
01
02
-E
-A
-D
09
-4
03
-1
01
-2
0A
00
06
00
-8
-8
-1A
1B
02
14
-D
-B
00
-F
-B
-A
05
-19
11
-A
-B
08
-4
-5
02
-4
-E
-4
-B
-E
00
02
00
-D
0E
01
09
-5
0D
-1E
09
-D
08
-E
00
-13
0D
-9
06
0F
-1D
22
-4
-4
-10
21
00
21
-20
01
07
02
-18
00
03
-A
1A
00
-6
-9
-1
0A
-1
10
06
00
06
-9
0F
-7
-6
00
07
-2
06
-1
11
-A
07
-A
02
02
06
-C
0E
-1
-1
0C
-D
00
-A
01
-9
09
-5
17
-11
-5
01
00
-11
09
01
-3
16
-5
-1
03
-A
17
-C
07
-14
-9
-8
-9
-B
-8
00
-10
0D
-A
-9
07
19
-18
-6
-23
09
-1
00
-3
11
-A
-1
18
-21
-8
06
06
1F
-4
-5
02
1F
-8
04
-E
1D
-6
06
0B
-18
-4
05
-4
0B
03
07
05
0A
05
-5
0B
00
-7
09
01
-2
-5
06
-1
-C
1D
-1
0F
-A
-D
-6
03
-14
-B
-1
-1
04
-B
-C
06
05
-B
00
-B
12
-8
-7
-B
05
-8
-A
10
-F
0B
-2
03
08
-9
00
07
-2
04
-1
-C
0F
00
02
01
-7
03
-C
-8
14
-2
04
0D
12
-3
-D
-2
0B
00
-1
05
-3
-5
-3
05
-9
06
-E
09
-F
-5
-4
-C
-3
05
05
04
04
0B
08
-5
-16
07
07
0D
-A
-A
-B
08
-10
-A
02
-1
07
-6
03
-C
06
-8
-C
-8
08
-6
00
05
13
03
04
0A
-13
-17
0B
03
-2F
28
-2
20
-27
-1
09
-3
-2B
-F
07
-25
24
-F
-3
-4
02
-B
-8
-7
07
-5
04
03
03
-1
08
-1
06
-2
00
-4
14
-C
-A
04
17
-8
09
-5
0D
05
01
19
-19
09
00
04
-7
-B
00
-3
09
-B
-9
00
-9
-3
-A
-2
08
-6
-8
08
07
06
00
-4
11
-7
02
01
06
-E
00
07
-4
-A
07
-7
00
08
-2
0E
-5
-F
00
-10
00
-3
-2
-1
04
-1
00
-4
-B
06
-5
04
-6
-3
-5
00
-E
03
-8
02
0D
-7
04
05
16
-C
-2
-8
19
07
-1
-1
18
00
-9
1E
-1D
-2
-3
-B
15
-D
08
-F
19
-A
04
-2
22
-7
07
13
-10
00
-9
-9
-1
-2
-8
01
0A
-11
-B
-4
07
-E
-8
07
0B
05
09
00
02
-1
08
0F
-5
00
-2
-B
00
-5
08
06
06
00
-4
00
-6
00
01
10
00
-2
02
05
-5
05
05
-D
0C
08
-1
-C
0B
00
-2
11
02
03
-1
-7
08
09
-A
00
04
07
00
00
-23
1D
-A
17
-28
-3
-A
-B
-1B
-3
-3
-28
29
-19
-9
08
-5
0C
-1
06
-2
-D
01
-E
-F
-A
00
-2
05
-C
-6
-7
-1
-E
08
-9
-4
-2
-A
-C
-11
-E
-9
-6
09
-C
05
-4
-E
03
-6
-12
-E
04
02
04
-D
07
-1
-C
1D
00
-8
00
04
01
-7
-9
0B
-7
-5
-15
0C
02
-9
0A
-3
06
03
-1
01
0A
-A
0E
0A
-B
-1
03
11
-6
-7
0A
06
06
00
01
-6
03
00
06
-2
-5
-5
-B
-3
-6
07
03
-1
01
07
01
-3
05
-4
0A
0E
-6
03
-5
0D
00
00
-3
00
-6
0A
02
-D
10
00
29
-1E
-8
-9
02
-1C
-A
-1
-12
23
-D
-8
-7
-C
0E
06
0A
-7
06
-D
-7
02
01
00
-7
0B
0C
-A
-8
1A
00
01
07
30
-1
03
-C
29
-A
05
17
-11
0C
-2
-5
-F
10
-B
0C
-2
05
07
02
-6
-B
01
-9
04
03
-3
-B
-9
12
-A
10
-16
-8
-6
-6
-6
-9
-5
-B
1D
-4
06
-5
0D
0F
-7
11
0E
-B
-4
02
0D
05
02
01
-A
02
05
-B
0A
-10
-1
-A
02
-9
-4
-1
14
07
-2
15
-7
-4
-9
01
-3
0E
-3
0C
08
-9
-6
05
-7
-B
-B
05
03
04
-A
-4
01
0D
00
03
-14
00
03
-B
-D
-9
00
-A
14
-14
-3
-3
1E
-18
08
-23
10
-B
-D
00
21
02
0B
20
-13
-8
01
-6
0A
-11
07
-11
02
-5
05
-A
-2
-A
00
-9
-6
-B
00
07
-2
13
04
07
-1
-A
06
03
-10
00
05
00
17
-8
0A
-8
01
-9
-6
-A
00
-9
-3
-5
07
01
0A
0B
-C
06
-C
07
0F
-F
-4
-12
02
07
08
-2
09
-4
09
06
-A
03
01
-4
0D
-1A
-8
-A
1D
04
-5
-1
0C
-6
-3
17
-C
-1
06
08
2A
-1C
-7
-4
33
-A
00
02
36
03
-8
3D
-1D
-3
-A
00
07
-B
00
-1
04
-8
-6
00
08
02
-9
07
03
-9
-C
01
-1
-1
08
03
-8
03
00
00
04
07
01
07
-2
04
07
-8
10
-1
-B
10
12
01
-4
0B
10
01
-6
1B
-10
17
-B
-4
0B
-2
-5
-B
12
-1
01
-3
0E
00
03
03
-6
-7
-4
-1
0D
-9
08
-7
15
01
04
-16
05
04
07
0B
-4
0E
-7
07
0D
-4
-1
-3
01
01
-3
00
00
-E
05
12
-D
-2
-9
05
0B
-1
-8
-9
09
-2
06
05
0C
-6
-C
04
00
-C
-6
-1
-3
0B
00
0E
02
01
-A
02
0F
-D
-8
08
04
-4
-C
-1
-D
18
-2
20
-C
-F
02
-10
-10
-A
07
-7
1C
06
-8
-9
03
-7
-A
-4
0A
00
-D
-10
01
-9
-8
02
-11
-5
04
00
-D
09
06
-2
-4
-C
00
-9
05
00
-2
06
0C
00
-6
-7
-B
09
08
14
-B
01
07
-5
-F
-4
-5
-3
12
00
-3
03
-1F
0D
-9
15
-1C
-4
-8
-4
-17
-2
-A
-1D
15
07
07
-B
-3
0E
03
00
-6
04
-7
-F
03
-5
08
09
03
-4
05
08
01
-16
07
-18
04
0A
03
-6
15
-F
07
15
-B
-2
0B
-A
11
-8
06
-2
11
-8
-1
-8
11
-A
-8
1A
-8
11
00
05
0A
-B
-7
-14
0F
-2
-B
00
08
02
-A
0A
-6
-5
03
08
00
-1C
08
-13
10
-1
-8
-E
15
-6
-9
0C
-15
00
-C
-A
17
01
-2
08
24
-C
-5
04
13
-5
-9
14
-9
0D
-A
-5
1B
-A
05
-B
13
-A
-8
-F
11
-2
-3
0E
-11
04
-9
-B
0B
-1E
-9
-D
16
-4
-8
-6
16
01
-B
07
-5
-2
-A
-5
08
07
00
-4
0D
06
-A
-B
00
-3
04
0B
-5
07
-C
06
-6
-1
02
03
01
02
-A
-10
-E
04
09
05
-1
-3
-5
08
00
01
-3
07
02
03
-A
06
03
03
-4
06
02
04
07
07
-9
-6
08
09
-E
-F
01
-7
07
-1
01
02
05
-8
02
-3
-5
07
04
-D
-6
-A
00
-11
08
-5
00
-8
07
-9
-2
05
-3
01
00
-B
07
-2
-3
00
07
-F
02
-5
13
04
-3
08
-13
15
-A
-6
-12
-E
01
-2
-16
-4
-2
-6
0E
05
03
00
-9
03
-2
02
-9
-12
00
-6
-3
-6
-4
02
05
00
-1
02
0B
00
-8
-1
-C
06
-3
-B
-2
05
-2
08
04
-5
03
-9
-1B
02
-5
00
-14
-B
-7
-A
-12
-D
-4
-B
04
00
00
-3
17
-14
-5
-F
23
-4
-4
-4
27
-6
-4
2B
-10
19
05
07
-4
-7
-8
-9
-9
-4
01
-10
07
-2
05
08
0B
-5
03
02
14
-28
06
-2B
17
03
02
-F
25
00
-3
1D
-1C
04
09
03
03
0F
-5
07
-5
-5
-7
-2
-5
-B
07
03
-2
06
-8
-4
0E
0A
-B
-10
07
03
-C
-7
04
00
01
0D
-2
-9
00
0A
00
-12
-6
-8
02
-D
-6
-1
10
-E
05
02
-2
-2
-B
-6
01
-4
-7
-1
-2
-8
03
-12
07
01
-A
0A
-6
02
04
08
07
01
09
0C
-4
-4
00
-C
-8
-7
-7
-3
01
-7
09
00
0B
03
-1
-3
00
00
-E
02
05
-9
09
10
05
-5
-1
01
-17
16
03
1E
-20
03
-7
-4
-C
01
08
-19
19
03
00
08
-F
14
08
0B
-5
-4
-C
-F
-12
-5
-3
-A
0B
-12
03
00
-D
0E
-B
-4
00
00
09
-E
-10
-4
08
-8
0C
10
-D
01
0A
-3
08
0C
0D
-9
-1
0B
08
07
08
01
00
00
0A
09
-A
-A
00
09
-3
00
-6
-8
01
-9
-8
-B
00
06
-5
03
-3
09
-1
0A
02
07
-8
-4
04
-E
-7
0A
-4
-7
-A
-9
-10
01
-3
0A
-10
-E
01
-1
-F
-5
-3
-E
07
10
-A
02
02
00
03
-D
0E
-4
-8
-1
09
02
01
0B
00
25
-A
05
10
00
06
-4
06
-A
-8
-1
07
-A
-3
10
05
04
-7
07
1B
-1B
-5
-20
19
-C
09
-6
11
-3
02
11
-F
11
-2
00
0D
05
-1
03
0D
-5
00
-A
0C
-6
-5
01
-6
04
-4
-5
-B
-3
0A
-A
-4
-C
07
-C
05
-B
07
04
0D
-7
06
-7
0A
-3
-5
00
-5
00
-6
-7
06
03
-9
0A
-1
08
07
-6
-8
07
07
-2
03
-7
-8
-14
00
-4
00
01
04
-2
06
09
-10
07
-9
03
-10
-2
05
-1
-5
-F
01
-6
06
-E
-8
03
0C
08
-A
07
-6
-6
-A
-B
-4
00
01
07
06
-7
07
-3
-F
11
-7
0F
-1F
-4
06
0D
-9
-7
-A
-F
0F
-2
-4
01
-8
03
-5
04
-12
-7
-4
00
-9
01
00
-C
0B
08
-4
08
-17
01
05
17
-4
01
01
-3
-F
-4
-C
-16
05
04
06
06
-A
1E
09
37
-B
-E
-5
02
00
-7
-5
-4
02
1C
01
01
-4
0B
-8
0D
-7
00
03
-C
04
-6
03
-9
00
-6
-8
00
00
10
0A
07
-6
01
03
-5
-9
-4
-B
-8
-4
01
-A
-4
-7
07
09
0D
-E
00
00
-12
-3
-7
-4
-11
0A
11
05
07
-3
1D
-5
20
-1
-B
09
-1
-D
09
-2
-1
0E
1C
02
-A
02
-4
-4
05
00
-E
-8
04
08
-1
05
03
0C
-3
-8
-7
0F
-1
-6
-11
0C
-F
-2
-10
11
03
08
18
-13
0C
07
-7
1A
-C
-5
09
12
-F
-8
-F
18
09
-A
0F
-13
11
-6
-9
-A
-A
08
00
-7
04
02
08
02
-C
-5
01
12
01
09
-4
01
08
-C
10
02
-B
02
-A
00
-8
08
08
0E
-3
-C
-A
-D
07
05
-1
-1
03
-B
-15
-D
-10
00
-8
10
-2
07
-3
-F
0A
00
10
-19
-8
00
-6
-4
03
04
-11
05
-4
08
02
-2
00
04
08
04
-5
-8
-8
-1
-9
-C
06
07
-B
07
05
-7
06
-7
03
-B
-F
0A
-8
-3
04
04
-13
01
-2
-6
05
-4
09
00
13
-15
-3
05
-B
-2
-6
01
-18
0B
00
-7
04
17
00
06
03
13
-10
-2
-10
15
-3
05
0B
-16
0D
-8
-3
-2B
4C
09
53
-31
03
-7
-8
-27
-4
-9
-29
32
16
08
-B
25
-6
-2
-1
19
-5
-7
-7
1E
-1
09
13
-20
0C
00
-7
-15
18
-1
02
-13
03
06
-10
-9
04
08
-D
1B
00
00
00
18
-1
-2
-8
1F
-10
-D
-F
23
-B
-4
1F
-10
00
-4
-3
1E
22
-7
0D
1F
03
-8
00
21
-5
02
16
-16
21
01
-D
00
00
06
01
01
-D
04
-6
-7
-F
-1
04
03
-4
-8
05
-5
05
-4
-C
05
-4
-6
-E
-4
-4
-7
0D
-5
0E
-A
-2
1F
-2
-B
05
0F
07
01
-A
1F
-7
07
0E
-1B
0A
-A
02
-11
05
09
07
-6
-9
02
-14
-12
03
01
-16
17
-5
-B
-C
1A
04
-B
00
0F
00
-5
-2
0C
-6
08
19
-C
1D
-4
-1
02
05
03
0A
03
-1
-3
-D
00
03
09
-8
0B
01
08
-6
04
-7
07
06
-6
-9
-2
-2
00
-5
-1
03
06
04
-C
-1
-B
0E
09
-4
02
-2
07
-3
-B
-10
04
-7
0C
-10
-C
04
11
12
01
18
0F
-C
08
-4
07
05
-1
0F
02
04
-1
-8
-C
-5
-2
-1
01
00
01
00
-6
01
0A
-4
11
-E
02
01
22
-3
03
09
12
04
-5
-11
0E
-4
-D
1C
-11
15
-3
08
-9
23
01
24
-5
00
02
-C
-16
-A
01
-8
08
13
03
00
1C
-15
05
-1D
21
02
-8
-4
1C
-4
-3
16
-C
03
-B
-9
03
-4
-6
-3
-10
07
-6
01
-D
-2
-3
-A
08
-F
08
-4
1C
-1
-B
-C
27
-D
03
00
26
-B
-B
28
-18
13
06
-3
0D
2C
-1
15
12
-10
08
-3
0C
-6
07
09
-1
1A
-8
-8
08
-E
02
-10
00
04
01
05
05
-1
-5
09
00
04
03
00
19
-19
08
-17
1A
-5
-1
-8
21
-2
-6
17
-21
02
00
-8
23
-D
-A
-7
17
-8
05
02
13
00
-3
20
-20
00
06
09
-4
0D
-3
07
-B
-3
0A
-C
-E
05
-B
-17
0E
-D
00
-7
0C
06
09
07
02
-8
-7
0A
11
00
02
02
-4
-1
04
-6
05
02
01
01
-8
01
-4
-E
00
-2
04
07
-3
-5
08
-7
05
04
05
-7
-1
02
05
-13
-8
04
-B
-7
07
-F
-1
09
02
08
01
09
-D
-6
-2
-F
-1
-10
00
-C
0B
-10
-7
-6
12
14
-7
0C
0C
01
00
06
0B
-B
-2
03
04
-A
-1
06
00
-B
-8
-4
00
08
02
-12
-C
-B
08
-D
07
-A
-8
-5
04
00
-2
05
04
-C
-7
-10
14
06
-C
0A
-C
1A
-1
-5
-6
2B
-4
1D
-3
01
-7
-E
06
-7
08
-7
-3
13
08
07
-1
-C
-B
-18
0A
02
02
00
00
07
07
02
-3
08
07
04
03
01
05
-6
06
-7
-C
02
00
00
-7
-1
-6
-2
03
-A
1A
-10
-9
-6
1F
-C
-5
-7
23
-6
01
12
-19
00
-8
00
-4
1B
-2
26
-B
-7
-7
06
-B
04
-5
-A
0A
17
04
-9
00
-5
-4
0E
0E
-1
-5
06
-2
-7
0A
10
08
-3
-8
-9
08
-6
04
04
-B
-5
-5
-11
01
-F
00
-5
06
-3
04
-3
2D
-17
02
-1F
1B
09
-4
01
28
-2
09
2C
-16
0B
07
-2
-10
05
-9
0D
-17
01
09
-2
-C
-4
08
-B
1C
02
01
02
-4
-6
-5
03
-A
-7
-A
-2
-9
-8
-7
-1
07
-2
08
04
05
-5
-1
03
-5
08
-7
00
00
-D
-4
07
-8
-C
04
07
00
-9
06
06
00
00
01
00
-4
-D
-3
0F
-4
05
06
-7
-4
10
05
07
02
-7
-B
-E
00
01
-5
-6
05
03
-1
-5
15
-3
04
05
1E
03
-8
00
10
05
-8
16
00
07
00
-7
-2
-9
-1
05
-13
02
00
01
-1
-5
-3
-2
10
-1
06
-5
-1B
27
05
1F
-20
-D
-9
00
-24
-5
-3
-1D
24
0E
07
-7
11
-6
-A
-1
-2
-C
-5
-8
10
01
-3
04
-7
09
06
06
14
-E
-5
-C
0F
-4
-B
-3
06
08
-8
18
-5
-1
-C
04
-6
0D
06
08
-11
00
-D
-A
03
03
-7
01
0A
02
03
-2
09
-10
02
-E
08
-C
-9
-7
08
-D
-9
0B
-6
08
05
-1
-1
03
05
07
-8
-B
08
-11
02
02
06
06
11
19
01
-9
09
-9
-9
-8
0B
-5
00
-10
-3
-4
05
-6
05
0A
05
00
20
-18
-A
-1C
1C
-9
04
-13
23
04
05
16
-1E
0B
-5
01
14
00
-5
-F
14
-A
01
02
20
00
07
16
-14
11
-1
02
-19
08
08
0B
-D
06
06
00
-F
-1
-8
-18
16
-C
06
03
03
-4
-9
00
0B
01
05
00
-5
08
02
0C
03
-3
-7
0B
03
-4
05
-9
06
-B
01
-D
01
-A
-5
01
-5
-6
-3
0A
0D
06
04
-A
0C
-3
-6
-7
0E
00
01
06
-E
02
-4
-6
07
-1
00
-7
0D
-7
-A
-9
-3
-F
00
05
-C
-A
00
-2
11
07
-B
0E
1B
03
00
0B
08
-4
06
18
-4
07
-5
-9
-B
01
07
01
-E
-B
-4
-10
-4
-8
05
-18
0D
00
08
00
-1C
0B
08
-13
-8
-B
05
-C
-9
-1
06
-17
23
0C
0A
08
-3
02
08
-1
-6
-7
-7
-1
-10
-A
-6
-3
13
0B
07
04
-9
-B
-B
-11
-F
-6
04
-7
-11
01
04
00
01
01
-1
02
00
-8
05
-1
05
-1
02
01
-1
-6
-B
10
-B
04
01
02
0E
-3
-A
-E
04
-C
05
-8
06
05
00
02
03
03
-C
-A
02
07
00
01
08
02
-4
-D
00
06
01
05
13
02
-8
-7
11
-11
08
-9
01
-B
-2
-9
0E
-A
00
00
-9
-6
-8
04
10
-16
-8
-F
09
-E
02
-11
00
-9
03
16
-5
-A
-B
-A
2E
-13
05
-1D
36
-3
-C
0B
34
-4
00
30
-2C
09
-6
-1
-12
1B
-B
11
-B
07
05
-B
-13
04
-3
-B
15
-6
-7
-A
-4
08
00
-5
-A
-C
-D
-1
-F
-7
-A
-7
12
-2
-8
01
07
-6
-7
-1
17
-4
-8
-2
12
-5
-7
18
-12
-8
-C
00
03
-14
-7
-B
09
-4
02
-12
02
-C
-3
0E
-E
-E
-C
-7
04
05
-8
00
03
-B
-8
-9
0B
-1
-3
04
03
-C
-1
04
15
0B
00
04
1A
05
-7
-8
0B
-F
-6
0C
01
08
-B
-6
-7
06
00
-2
-4
02
-8
-B
00
00
-4
-E
03
0A
04
04
-A
0B
09
-8
-5
-E
0A
00
-3
02
06
-C
0A
-4
09
-A
-2F
05
-6
03
-29
-E
-9
01
-26
-7
07
-2F
2B
1E
02
0C
00
-9
-3
-1C
-4
-4
-3
-F
0A
-2
-B
09
02
-C
-B
08
-3
01
-1
-4
03
-3
-4
-D
-1
-2
-C
-8
03
-3
00
-4
18
-22
07
-2E
1E
-8
05
-8
13
00
-5
23
-1D
09
05
00
16
-24
05
-1E
20
-5
05
-10
16
09
07
17
-11
00
07
06
11
-12
-A
-B
01
-11
-4
-6
06
-A
-4
0F
-3
04
00
-4
19
-17
-6
-1E
04
-4
04
02
09
04
-C
10
-A
-B
-4
-9
2A
-25
09
-19
3B
-D
-8
05
28
-7
02
25
-22
16
00
01
-24
0F
-C
0F
-15
-1
-A
-4
-22
02
00
-1F
16
06
02
00
0A
-A
00
-D
08
-11
00
-7
0D
-6
-6
04
-1
-7
07
-1
0B
-E
09
-4
08
05
-7
00
0A
-A
-2
0A
-14
-2
-5
-A
04
06
-6
-7
00
05
05
-14
-3
-4
-A
-1
01
-5
-4
03
08
-5
-9
-1
14
05
01
-5
14
02
-6
18
-A
-5
-9
03
09
-8
-4
-D
15
-11
-9
03
03
-3
06
0F
-9
03
-A
05
-7
-3
-8
-3
-D
-5
05
04
-3
-9
01
-13
0C
00
-3
-B
-11
-9
-5
-16
00
-C
-2
-F
-C
0A
07
-D
05
05
-1
03
-1
-1A
-2
-15
07
00
04
01
-2
0A
-8
01
0C
1A
-8
-7
04
03
-7
-1
-8
-6
06
-2
02
00
-5
0D
-9
-E
03
04
17
-F
07
-B
02
-A
08
-C
14
-8
05
0C
-13
00
-9
06
1D
-18
-A
-17
16
-A
-C
-F
0F
-9
07
0E
-9
-9
00
-2
0D
-18
-8
-14
17
00
-8
-A
1A
-7
-3
10
-7
06
04
02
0E
01
02
-E
-1
-B
-7
-4
09
-A
-9
06
06
00
-3
07
11
-B
-D
-19
15
-6
-A
-3
17
-9
08
17
-1B
-3
-4
-2
42
-20
-B
-1C
3F
02
00
-16
34
-A
04
3A
-3B
01
-A
05
0E
-A
06
0A
12
-5
00
-6
16
-2
05
16
-C
-6
-C
-A
-4
-2
02
01
-B
-3
06
00
09
-2
00
-6
08
-4
05
-9
09
-C
-B
05
14
09
-9
03
10
01
02
07
-14
00
-1
07
06
-A
-6
01
0C
-B
02
-2
15
-A
-1
0D
-8
04
03
-5
10
-A
-1
00
0B
-C
-6
01
19
03
-1
19
-D
00
07
-1
09
-17
-1
-9
11
-E
-D
01
00
-9
-9
0B
01
0C
07
-8
05
04
03
05
02
01
-1
-1
-B
-6
-B
-4
07
-F
02
-B
27
-2A
08
-35
22
-8
01
-7
20
02
-7
2D
-20
-11
-1
07
-10
01
05
-1C
-D
-5
03
-D
-13
04
-3
-9
0B
-C
-2
-C
18
-12
-D
-C
19
-4
06
-8
18
-E
04
0D
-10
01
07
03
24
-D
00
02
1B
-6
07
01
21
-8
-A
26
-E
00
-B
-4
-15
24
0C
15
-7
-10
00
-9
-D
-5
-7
-19
0B
00
-1
-5
-5
08
00
-C
-2
-11
09
-4
00
-E
08
00
0E
00
-8
03
-F
10
00
17
-11
-6
06
-D
-16
00
-C
-16
1B
00
-3
02
-3
0E
-3
07
-3
-A
03
-8
-11
-9
01
-11
0C
-5
09
-8
33
-12
07
-19
2B
-2
-7
06
21
-5
04
1E
-1F
-7
03
00
-6
00
01
03
00
-8
07
05
11
-1
-3
04
01
0A
06
04
18
-2
03
01
06
03
-6
01
0C
-B
04
0A
-2
-2
-B
-1
03
00
-A
04
09
-3
-C
-9
-2
08
-6
05
-5
-B
-3
-6
07
-2
00
-5
04
-2
-A
-1
15
-7
-A
06
-2
02
-9
08
03
13
-3
10
0B
03
-4
-1
00
-4
-2
02
0D
03
-D
06
00
-1
-B
-5
-3
-F
03
-7
-1
-F
06
08
-3
03
-B
02
-7
05
-6
-5
-A
-A
02
-6
01
-1
-4
09
-2
-12
08
-6
07
-19
03
-15
0C
-6
-8
-7
15
-B
03
0B
-D
-12
02
-7
-17
16
00
10
-26
04
05
-F
-25
-B
-A
-26
1E
00
07
-7
-4
00
-6
0C
-A
-3
00
-12
02
-C
04
-4
00
05
04
05
01
08
-1
08
01
05
00
-8
-3
-3
-2
-4
02
00
-3
-5
08
-A
01
09
08
-1
-3
-4
10
01
03
15
-15
0C
-C
03
19
01
05
00
09
-10
-2
-F
10
-2
05
13
-1
-5
-5
-A
15
03
03
00
0E
-3
01
-E
11
01
-9
00
01
-9
-5
05
21
-15
-C
03
1E
-1
-4
-5
2B
07
0A
23
-27
13
00
05
17
-7
04
0B
21
-C
05
-D
10
-A
-5
18
-12
0F
-A
05
-F
0C
-9
12
-C
-4
07
-E
-11
03
04
-E
14
-C
02
07
-6
02
-1
00
-8
-4
-5
-16
-A
-9
00
-C
09
-1
06
07
-2
0C
05
07
03
-5
-A
-3
0A
08
01
-8
04
00
03
-4
06
05
00
-9
04
-3
-C
06
0A
-5
02
08
06
-D
08
00
0E
06
-5
06
0B
-8
-C
-C
0D
05
00
06
-4
-3
03
-C
-C
06
07
06
-6
00
01
-9
-B
-A
03
-B
11
-3
-1
04
08
01
00
-5
06
00
00
-7
0D
-C
0B
07
0A
-C
-1
-4
07
-C
00
-A
16
-3
03
-7
19
01
-3
13
-16
0C
-3
-4
-9
1B
00
0F
04
-E
03
-3
00
-6
-4
00
14
07
-2
-7
15
-1B
00
-14
05
01
00
01
07
-8
-1
06
-2
00
-4
-1
04
06
-8
0D
-9
-A
-5
-A
-6
06
-7
-9
05
-6
-9
05
07
-F
08
-5
02
-11
00
-C
13
02
00
09
-8
09
-8
-3
-14
2B
08
23
-1E
02
-5
-D
-1C
-B
-A
-D
1A
03
09
09
-8
08
03
03
-D
-7
00
-D
-4
-D
-9
04
09
-C
-1
-7
1E
-19
09
-14
19
-F
01
-5
23
00
0A
20
-17
0B
08
-3
-1
03
-B
17
0F
-7
-2
01
00
-C
-4
-1
-1
00
02
-1
-7
00
-2
-3
0C
07
-8
04
-9
-8
00
02
-8
-5
00
06
14
-6
00
-12
10
-3
-3
-2
12
0A
00
13
00
-6
02
08
11
-8
-9
01
11
06
00
-F
0D
01
08
08
-11
03
07
-7
0E
-10
04
-E
01
-2
03
-A
15
-6
-C
0F
-4
-B
08
-4
-3
-1
00
0B
-2
07
05
00
-3
-9
-3
09
-6
06
00
04
00
0C
-9
0A
00
-7
03
-C
-C
-D
02
-6
0A
-1
00
-4
00
09
02
-6
-7
03
07
-4
00
-D
02
02
0D
-B
03
01
-10
2B
00
22
-10
-4
04
-E
-11
-7
05
-2
10
12
-3
03
23
-F
02
-13
31
-3
-3
01
35
07
-6
20
-2A
1E
-4
02
-E
0C
00
00
00
-F
09
-3
-F
-4
-1
-10
17
00
04
00
0B
-5
-C
03
-4
-4
-7
-A
04
02
00
-1
00
-5
-9
0B
2F
-26
-5
-1B
20
-D
07
-11
25
00
-4
22
-2B
-3
-B
-4
-3
0F
09
15
-5
-11
00
-A
-F
00
-1
-2
-1
0C
-2
-1
0F
-1E
-B
-18
-9
-C
08
01
-2
-1
-B
01
03
-9
-7
06
38
-2D
06
-24
22
00
02
-C
38
08
07
2D
-35
-A
-1
00
1C
-3
07
-10
0B
05
-A
03
18
-9
00
10
-1C
-6
06
06
-B
0F
-4
-3
-8
09
-4
-13
-7
-6
08
-3
12
-9
00
-2
03
-1
-8
01
08
-10
04
04
01
-1
04
0E
0A
08
-4
-5
10
-C
-5
-C
07
-8
-2
00
01
-9
-A
10
-2
01
-9
00
07
04
-5
-2
03
-B
04
-12
-A
-B
08
05
-3
-4
-C
-2
00
08
00
0A
0A
-B
-D
-5
0C
-D
07
0D
05
-B
-B
-3
00
09
00
04
04
-B
00
-B
-9
-2
-7
-9
11
07
-6
-2
-6
00
-B
01
-E
-E
-6
-E
-7
-8
06
-7
08
04
00
-7
-1B
29
04
2A
-16
02
0A
-12
-28
07
08
-15
1E
-6
06
0A
-B
12
-2
2A
-1C
-10
-7
-5
-8
-1
07
-11
18
-3
04
-5
-F
-16
-4
-A
-6
00
-8
03
-E
-2
-1
-15
15
-6
-6
-7
-2
-8
00
07
-6
00
-1
-6
00
-2
-1
-3
04
02
04
-4
0A
-8
-9
-13
04
-3
-6
-D
0B
-1
-C
13
-5
-F
02
04
-1C
23
-5
2B
-29
-B
0A
00
-2F
-A
-4
-25
26
-5
-9
-5
0F
-19
01
-1F
15
-F
06
-9
0D
00
-A
02
-E
03
-4
05
00
-C
00
-D
02
02
-7
-14
-A
09
-4
04
00
00
00
04
1D
-7
-4
-1E
07
-6
-3
00
03
03
-F
05
-14
-C
-7
05
-12
07
00
05
-12
-7
-1
00
-2
-A
-7
-11
19
05
-8
01
-2
-13
-A
-8
01
-5
-9
03
00
-7
00
08
0C
01
-1
08
02
03
-3
02
00
-8
05
-1
0D
-9
02
09
-8
-5
-3
-4
0B
08
01
-5
-2
-1
-3
-10
0C
01
00
-5
05
-7
-9
01
01
00
-2
0B
02
-6
-C
-C
0A
-1
-3
-1
-6
02
04
03
0D
-2
-8
-13
-6
-8
-1
06
0B
-1
-A
00
0A
-9
07
06
00
-3
04
04
-7
05
00
-3
00
-10
-6
-A
05
01
00
-7
0F
04
08
12
07
-4
09
-A
0F
-9
-6
08
-9
03
-8
02
-15
13
-3
36
-E
-A
00
03
-13
-9
-5
-23
24
00
08
05
0D
-13
01
-11
05
-8
05
06
0C
-6
-7
0C
-E
0D
-6
-1
00
00
05
02
00
-9
-8
-9
-5
-C
02
-6
02
00
00
-9
13
-12
07
-C
10
-F
-5
-8
20
-3
-8
11
-17
-10
-7
03
-2A
33
09
35
-22
00
-3
-C
-1F
-9
08
-2D
2B
03
0A
-5
09
-7
-3
-C
-4
-3
03
0D
-6
-6
-7
-7
-7
-4
-8
00
-2
-3
00
04
-11
-9
-5
-6
-9
01
08
-8
00
-9
-2
-6
20
-1F
-3
-A
25
-1
-5
-13
20
06
07
1C
-1F
01
-5
03
-9
07
-1
-2
-16
-4
-3
-2
-7
-4
04
-17
09
00
-3
02
10
-1E
-2
-23
15
-5
05
01
1D
-9
-B
25
-20
-9
-9
02
0E
02
-6
-7
-6
-1
-8
-8
-3
-E
-4
00
-B
-2
06
04
0C
03
-1
00
-B
-9
-B
-11
-1
05
09
-3
03
-9
-2
-1
02
10
-4
02
06
-1
-B
-B
08
-2
-B
-A
-1
00
03
-7
1D
-2E
06
-30
22
03
05
09
26
00
00
19
-12
-9
-3
05
00
-3
05
07
-6
02
-1
-4
00
-1
-A
-F
13
-1
-6
-9
03
05
-7
11
05
-1
-5
-D
14
-1
07
03
-14
0D
00
-7
-14
09
-5
0B
-13
07
-1
-9
-22
08
-A
-1A
0F
02
-4
07
10
-B
-4
06
04
-8
-5
07
16
-4
-4
0B
-E
-1
-7
-3
11
05
-3
00
-4
01
-9
02
09
01
04
07
-2
-9
-6
-3
1F
-5
-7
02
13
-11
00
-11
1B
05
04
1E
-20
08
04
02
11
19
07
21
11
00
06
-4
07
09
-A
12
-C
-6
-7
-3
0A
-2
-7
05
16
-C
-6
-8
18
-6
-2
0F
-12
-8
-5
-5
25
04
-A
-1
1A
-C
05
-13
1F
-2
07
12
-F
00
-4
-C
-10
1B
09
1F
-14
03
-8
03
-C
-4
-7
-19
08
-16
-3
-6
-B
02
07
-11
-5
-A
03
-E
01
-4
-B
-D
-2
-D
-7
-A
08
06
04
-1
0C
-2
-3
02
07
06
-9
00
-B
01
-8
00
0C
01
07
08
-3
-7
-7
01
04
-D
07
0A
-B
-6
-5
03
00
02
07
-5
09
-5
07
-2
07
-4
-8
03
-3
00
01
05
-9
0E
05
03
06
-C
03
-11
03
-8
-6
01
00
-5
-3
-8
0C
-4
-E
-17
09
-8
-2
0A
-5
-1
-2
02
-D
02
00
06
07
04
-6
07
-1
-9
-A
-12
02
-4
01
04
-B
0B
03
-5
09
14
02
1A
-4
-2
02
-6
-4
00
02
0B
02
0F
05
06
-1F
43
-9
40
-1C
00
00
-1
-1A
01
0B
-27
19
08
-4
-6
14
-6
00
-1A
14
-4
01
07
18
03
01
11
-F
11
-9
06
06
08
01
00
02
-A
03
-13
06
03
03
-1
07
-E
-A
07
24
02
-2
08
22
02
-7
-1
1D
04
01
17
-D
08
-6
04
-D
2F
-A
3E
-C
-A
-1
04
-6
-8
-5
-15
0F
-3
03
03
31
-16
-1
-13
2A
00
01
02
31
-6
-5
21
-31
0F
-5
-A
0B
06
02
-4
18
-7
-4
00
16
-A
07
19
-16
02
00
00
-28
2C
00
25
-2C
08
-2
-1
-32
-A
-2
-31
30
-13
-A
-6
04
0D
-1
09
-F
00
02
-9
00
-E
-7
-8
04
-A
-8
02
1D
-12
-7
-D
10
-2
07
-3
16
0A
-3
1D
-23
0B
-6
-4
08
-6
03
05
-5
00
-8
-F
05
05
05
-3
07
-8
02
05
05
02
07
02
-6
-B
04
-5
00
-F
06
03
-B
-E
03
03
-6
09
-4
0D
01
-4
-1
-10
00
03
00
-9
0D
-8
-5
09
05
-D
06
-14
0E
-2
04
09
0D
-2
-1
0D
-4
04
-9
-7
0F
-5
-C
07
00
-12
-1
-9
13
-D
09
0C
-9
-7
-7
-2
0B
18
-8
12
0A
-9
-6
-10
07
08
05
01
-1
14
01
-2
-A
1F
07
-1
00
-B
00
-2
-D
-A
-8
-10
0D
0F
-8
02
02
03
07
-15
09
-5
06
04
09
00
01
0E
04
-3
00
02
0A
00
-7
-3
09
-D
00
-E
0D
-C
-1
03
-C
07
04
04
14
-9
-6
-A
1D
-4
-9
04
0E
02
-7
0A
-10
14
-B
-4
-4
26
00
19
05
-1
00
07
-3
05
-7
-9
17
10
-2
-3
2B
-1D
-F
-23
1E
-F
-4
03
25
05
07
2C
-24
-3
01
06
0B
-1
03
-17
1E
02
08
0B
18
-8
-4
14
-B
06
02
0A
-1B
10
07
27
-18
-3
-6
-2
-22
01
-5
-21
12
-16
05
-6
12
09
02
00
09
-11
-C
-B
-1
01
03
12
00
-1
00
06
1C
-9
-1
-D
18
-C
-6
05
22
-9
-6
15
-1E
02
-C
-3
05
08
08
01
0E
01
-4
-9
0E
-2
-C
10
03
04
-7
05
-2
0C
02
-2
-2
01
-3
07
-8
-8
02
-8
-1
03
-1
00
07
-4
04
05
0B
-9
-E
-B
00
-8
-6
01
00
-D
08
01
-9
-5
-5
-3
-C
06
04
-B
05
03
01
00
0C
07
-3
04
-1
02
01
03
-8
-5
-2
04
-2
-2
01
04
0B
07
03
-3
-16
1C
02
15
-B
-8
00
-D
-D
-4
-E
-18
15
02
01
-2
0E
-9
-6
-20
1D
-3
0A
00
17
-A
-5
0E
-3
1F
-7
03
00
-9
0A
-D
0D
-E
00
-6
06
03
08
00
06
0E
-A
05
-A
0E
-1
09
-6
04
-9
-9
-1
-C
-A
-5
02
-6
00
03
-18
0B
-6
0F
-C
-B
08
-9
-B
-4
-7
-7
10
-6
-6
04
14
-33
-8
-28
0C
03
09
06
1A
-A
-4
20
-15
21
02
00
0B
00
-4
00
03
-1
-8
-7
07
-3
09
-8
-1
09
-A
-A
-9
01
-2
06
-A
00
00
06
-3
-4
-8
-6
-3
12
-5
-4
17
-30
-9
-1E
0F
01
00
01
1E
05
06
17
-15
-17
00
03
02
08
-2
09
-1
00
06
-1
07
-8
00
08
-B
-7
00
05
0E
-1C
06
-1C
10
-C
-C
02
09
-4
-C
0C
-1
-4
04
04
-4
05
-9
01
-6
05
-2
-A
08
00
-6
0C
-D
-C
-2
07
07
-6
02
09
07
-2
06
01
03
-C
-9
01
08
-4
-C
-6
05
09
00
02
-3
-2
-1
-5
03
02
-7
05
-7
-8
09
01
05
-19
00
-18
-4
-8
-7
-7
0E
04
-7
02
-3
-3
-2
07
-8
05
01
-1
-4
00
-B
-A
-6
03
-6
-2
02
0B
05
-5
01
0B
-2
10
00
-4
06
-4
-D
-6
-5
-11
06
19
-4
07
-10
16
-5
0A
-8
-B
00
-7
-8
-A
-A
-D
0B
11
-1
-5
12
-7
00
-12
09
-10
-C
08
10
-1
00
-3
04
06
-7
09
-7
-7
0A
02
00
04
-9
-A
01
04
02
0D
-2
-B
00
04
-2
-3
-3
-10
-3
-10
-1
-7
-7
-7
-9
-2
0A
-4
-1
05
13
-21
04
-2E
1B
-7
-1
-10
17
-9
04
11
-16
08
02
-7
-8
0C
00
09
-2
02
-1
-A
03
-3
03
-6
02
-5
-2
-2
16
-23
0A
-14
10
00
-4
-C
19
-7
04
11
-B
04
-B
00
1F
-24
09
-25
24
08
03
-1
29
-8
-4
20
-28
-7
-6
06
-6
0C
0A
00
-2
-9
-2
-D
-7
-1
-6
09
-1
-2
-7
-A
-1
00
03
-5
01
-3
-5
03
-1
00
-9
-C
09
08
09
-3
09
07
0A
-2
06
-9
-9
-3
0C
03
07
0F
-9
02
-7
08
1D
-9
04
-4
13
00
-6
00
1A
-F
08
1A
-15
00
-6
-5
0B
08
-6
-2
-3
-8
-4
02
07
02
00
0F
-A
-10
-4
00
00
-B
03
-13
00
00
-6
07
07
00
-6
03
0B
08
06
-C
02
06
-9
-8
-2
-3
06
-9
06
06
-5
0C
01
-4
-1
08
-2E
15
01
-9
-33
-4
-4
-D
-2F
-7
02
-38
28
-6
0A
02
-1A
-1
-7
-1
-16
01
05
-13
-21
06
07
-22
2B
08
-7
0C
-F
-C
0C
-D
-D
-C
-A
-2
-8
0A
-1
-3
0D
06
-3
-A
0F
00
03
-2
01
00
02
-E
0C
-5
-3
0D
-10
02
-3
-3
-8
08
-2
0C
01
-D
-5
-2
-F
-4
08
-10
03
0C
04
00
-A
-D
04
-25
-4
-10
-9
-D
01
-8
0D
-2
12
16
-1
03
0E
00
09
-1
13
-11
-2
-B
-3
02
00
01
09
02
00
-6
02
-8
-9
05
12
03
-D
03
0F
-A
07
03
-3
04
-5
-A
27
-24
-8
-15
27
-A
-4
-2
26
06
-B
18
-1E
-1
-B
-2
-D
0B
03
07
-7
05
00
-8
-E
-6
08
05
0F
01
-A
-A
-A
-E
-2
-14
06
-2
08
-6
01
01
-8
-4
02
-2
-8
01
0C
-E
00
-6
13
04
01
-11
12
05
04
0A
-A
-7
02
-9
10
-F
09
-F
01
00
-6
-7
06
-2
-4
10
-5
04
03
07
04
07
01
-1
0F
-C
06
-10
0B
04
-6
02
-C
00
-B
02
-6
-1
00
-8
-4
-7
-2
05
-3
01
07
-A
06
-5
-5
-7
02
-4
-7
-3
-7
-12
-D
00
-3
-1
-2
0C
06
-3
-7
-1
-1D
-6
02
-1B
-1D
-7
-7
02
-E
-8
-7
-18
26
0E
-1
01
-12
-26
02
-27
-A
-10
-4
-4
00
-3
-7
-10
1B
11
-5
-8
0A
-16
-6
-C
00
-E
-B
-5
0A
09
05
00
0A
-7
-3
03
07
-6
06
03
08
-A
07
-C
0B
03
-5
0C
06
-A
08
03
04
-B
07
-1C
00
-8
00
07
-6
-9
-A
0E
-8
00
06
09
-22
-6
01
-9
-1F
-A
-8
-E
-2C
03
01
-2E
26
-1
06
-9
02
-6
06
-12
00
-F
00
-E
11
07
05
05
-7
-7
-9
01
-9
-7
08
-C
0A
-D
04
-B
-3
07
-B
07
08
-2
07
-A
1F
-12
05
-13
25
0A
-3
-5
24
06
-3
1C
-15
16
-B
03
-1
05
-8
08
02
-A
-4
-F
09
-F
00
08
-4
04
-4
-2
03
-D
-1
-F
03
-1
-3
02
0A
04
-B
-1
-3
02
08
07
12
-9
06
03
0A
05
03
-5
04
-6
09
11
-4
-A
07
-1
0C
-B
-B
01
01
-A
06
-E
0E
-C
00
14
-10
00
-1
-9
0B
-6
06
00
09
-A
-A
00
05
-5
00
15
02
05
00
05
1C
-C
00
-A
22
00
-C
0A
1B
05
0A
06
00
17
-2
-3
-9
08
-2
0D
-B
-3
-2
-1
-4
-8
-A
06
03
-8
-5
-1
05
-18
04
-14
08
-C
00
03
01
-8
07
14
-B
16
06
05
17
-3C
-5
-2C
23
-B
-9
01
20
04
02
1F
-9
0D
09
-8
02
02
-6
-7
-1
03
-C
-C
06
-2
-9
-4
-5
04
-5
00
04
-5
-8
06
0B
-1
06
-6
07
-E
-A
11
-3
-9
05
-4
34
-1B
-6
-28
2E
-7
-C
-10
31
-7
00
27
-2A
-3
-B
-6
1B
-1F
01
-1E
1B
03
0B
-5
21
-3
-D
28
-19
11
-A
07
0C
-D
-6
-17
18
-B
-1
-2
0C
-9
-A
10
-4
-12
-A
07
23
-21
00
-1B
2F
-6
05
-4
20
06
-8
1E
-18
-9
00
03
1D
-5
-B
-10
2C
01
-9
-6
1E
-8
-8
14
-19
0E
00
-6
1A
-F
03
-8
0F
-8
-6
05
0E
-6
01
0E
-3
-8
-5
06
-A
0A
06
02
06
03
-C
-9
-1
02
01
00
05
-8
09
07
09
-9
-5
02
0C
08
-6
-B
14
04
01
0C
-C
-C
-8
05
1C
-A
-5
-19
08
09
-7
00
09
-8
08
14
-9
-A
-2
-1
09
09
-3
06
10
-7
-7
03
17
01
04
0B
-8
-6
01
-B
-9
00
-8
0F
-2
-8
-3
01
09
-C
01
01
04
11
-A
03
0E
03
00
-2
07
-2
-4
-1
11
-5
-5
0A
-C
-4
00
-2
-3
-15
08
-16
-10
-10
02
02
01
-7
-4
05
-7
-11
09
-2
1E
-21
-9
-27
10
-E
-2
-D
1D
02
-4
16
-11
-E
0B
-D
05
03
-3
08
-5
01
-7
-2
-2
-B
09
-2
00
0D
00
06
19
-3
-6
07
1A
07
07
-B
24
-A
05
22
-11
0F
02
00
09
-C
07
01
03
-11
03
-11
-2
-E
00
0A
03
0E
-1
-2
-1A
-F
-7
-13
-10
-9
09
-8
-1F
-2
-A
-D
13
-9
09
06
-6
00
01
00
-1
-10
03
-6
06
-F
00
0C
08
-3
-5
-8
16
-B
-A
-C
22
02
04
-14
0C
-8
-5
0C
-11
0F
-5
-3
-1
12
00
14
-D
-F
02
-D
-9
-9
00
-7
14
01
04
09
0D
06
08
-2
-9
-2
-4
-1
00
08
06
0E
00
01
01
09
14
01
03
-3
0C
-7
-1
-9
0F
-7
02
05
-12
-5
-4
-5
-A
12
-C
0F
08
-5
-2
-3
-9
00
-A
-1
04
-4
-1
-5
05
-6
02
-C
0A
-5
03
02
06
04
03
12
00
04
06
-7
-7
09
04
04
06
09
-A
-1
-1
01
04
-4
00
07
-1
-5
02
05
03
06
-F
-3
-8
06
08
-B
00
08
01
-E
-B
-A
06
-1
03
-1
07
03
-1
-D
0F
01
03
-2
-D
-1
04
02
-22
1F
03
16
-15
-8
-2
-6
-F
-9
02
-21
20
-4
04
00
-15
05
07
0E
-18
02
09
-5
-1E
-A
-7
-1E
24
01
-3
00
09
-B
02
-2
-9
00
00
-7
08
-2
05
-4
-5
-C
-4
05
-C
14
01
02
-8
-7
07
01
03
00
01
-1
0A
06
-1
-4
-8
23
-4
1A
-10
-3
-7
-F
-15
-7
0E
-14
1B
07
-4
0A
-1A
1E
0A
1E
-2A
-D
-3
-A
-2E
-E
00
-26
26
07
-A
-7
-13
15
05
0A
-13
-11
-D
-3
-B
-9
-4
-10
11
-4
00
-9
-15
14
08
23
-12
0A
-8
-5
-A
-9
05
-15
09
0A
-1
-6
1B
-D
-1
0A
1B
0A
-D
-5
29
05
09
1D
-22
-1
0A
06
1A
-D
08
-11
16
03
00
-7
1C
02
09
1F
-27
-5
-7
04
-4
-2
05
-3
-7
-C
-2
-4
-B
02
09
-15
05
-F
05
09
-3
0D
-2
06
03
-8
02
-9
-2
-2
04
08
-8
-4
-D
02
08
-2
-C
00
00
-4
06
-2
12
03
07
10
-F
-D
-8
00
09
01
-A
0F
09
-9
-D
-D
0C
-3
-A
07
00
-D
-B
-6
03
-2
-C
-B
07
-10
05
-B
09
00
-5
03
-3
00
01
-6
16
-A
-6
-7
03
00
04
-1
0D
00
0B
0E
-E
04
-5
00
-5
0F
01
19
-E
00
-8
-2
-9
-5
09
-F
0B
0F
-9
-2
-16
1B
-9
0D
-A
-A
08
07
-14
04
03
-E
25
-2
06
03
0F
-A
06
-11
09
00
-2
08
07
-7
00
08
-C
-5
-2
01
-5
00
-5
-3
01
-9
04
-B
04
00
01
-6
08
-D
-4
-6
05
03
-A
0B
-4
-1
-4
-B
-7
00
00
03
02
13
-2
03
03
14
08
04
02
09
00
-C
-2
01
00
07
08
01
-1
-1
-1B
12
08
03
-1A
-F
00
-6
-B
-B
-5
-13
0A
-E
06
08
-A
0F
-9
08
-4
-3
05
02
-C
03
-4
01
03
03
-4
03
17
-F
05
-C
1E
08
01
-5
13
-2
01
1D
-22
-1
-9
-3
17
-1
-9
-B
02
-9
06
-9
14
-3
-6
0F
-8
00
-9
-2
09
-1
-6
-1D
-5
-1
03
-7
10
02
09
04
-6
-1
-6
04
05
-1
06
03
06
08
-4
-C
0C
-7
-5
08
-8
04
01
-3
15
-19
-2
-5
0E
-8
-D
-F
0C
-8
-2
11
-14
07
08
-6
05
08
00
-A
15
00
-7
-7
05
-A
-2
01
-5
-C
01
01
15
-F
00
-C
0E
-9
-C
-5
0F
-B
01
0D
-4
-9
-8
-2
00
-3
00
-3
05
-5
-8
03
-1
01
07
-A
08
-6
00
08
-16
20
-A
1A
-14
-1
-6
00
-16
06
-3
-17
16
04
08
09
-3D
34
-5
23
-3C
04
-4
03
-44
03
-A
-32
3C
-1
-3
-1
-5
-11
05
-5
-A
-1
07
-6
04
-8
-8
07
-A
04
-8
09
19
-9
-A
-C
05
01
00
00
16
03
-6
11
-2
01
-B
09
14
-16
00
-27
-3
-8
-3
0A
11
-4
04
05
-9
-7
-8
0A
25
-27
-3
-16
14
-9
-6
-4
27
-3
-5
1A
-20
0D
-8
-8
0E
-15
-7
-16
0F
-6
-3
-8
0A
-7
03
02
-B
-6
00
-4
10
-22
-6
-31
0F
-2
-2
02
1C
08
-4
0C
-17
04
00
-5
49
-32
-4
-3C
34
-5
-6
-1
3D
-3
01
48
-33
03
-2
08
1B
-1
05
03
15
00
-4
-B
0F
-6
08
1D
-F
01
05
06
02
00
-6
-F
01
-F
-9
-D
-B
-9
-B
-10
14
-9
-1
-B
09
07
01
-B
12
-3
-5
00
00
-9
00
0F
-5
-3
-4
09
07
09
-8
00
08
07
04
05
-8
02
01
06
00
-8
-A
-3
0A
-5
-9
0A
08
02
-4
01
0B
01
-9
02
03
-4
-5
08
-1C
15
-8
0A
-16
-1
09
-A
-1A
00
09
-1D
25
-2
-4
-9
-8
01
-4
-8
-8
-4
06
-10
-B
-F
-9
-7
02
-B
04
05
-2
-C
-5
0C
-F
-7
03
05
-11
0A
-D
-8
10
06
-1
-5
-A
-1B
05
-1C
-A
05
-9
-B
-C
00
04
-11
07
06
0B
01
-10
-16
00
-13
-3
-9
-7
00
-B
-1
-A
-2
13
-9
-1
01
16
05
00
04
1B
-7
06
-13
09
-4
-5
18
-11
-6
-5
09
0D
-1F
-6
-1A
0F
-3
-B
-13
07
00
-7
0E
-E
05
02
00
09
-23
05
-13
-3
02
06
0D
-C
00
07
-6
08
04
-5
-3
02
-4
-4
-B
00
-B
05
-3
00
01
-7
-E
-1
-3
-3
-4
1B
-A
-2
-13
09
-6
01
03
0C
-8
-7
0E
-8
-4
04
-4
32
-43
06
-44
2F
-1
06
-4
3F
-5
-5
3C
-38
05
-9
-A
-9
0B
03
13
02
-4
00
-16
-5
-B
-A
03
03
-4
-7
-7
-17
-6
0A
-C
-D
-9
-1
-7
-15
-A
-2
-14
12
-C
-7
00
0D
0A
-1
-8
08
-6
04
-C
10
03
03
06
03
-E
07
04
04
06
-2
0A
0B
08
04
-2
-2
-5
01
00
-8
02
-6
-9
-1
06
-A
10
03
-B
-2
-6
0C
-F
-4
04
-5
01
-7
01
-C
-1
02
-12
-8
00
01
-8
02
05
-1
-10
00
-1
03
-3
00
-2
-4
04
00
-C
04
-5
10
02
08
00
05
-1
02
02
1E
-29
-2
-12
22
-A
0A
02
16
06
-8
1E
-19
07
09
-8
14
-1C
-9
-11
0F
03
06
01
0D
-3
-2
11
-E
03
0A
03
0A
-28
-3
-27
03
-2
05
0C
0F
-9
-8
00
-A
03
08
08
-5
10
-4
0C
-4
-B
-A
02
-9
-3
08
00
00
-F
-3
07
13
-31
07
-31
05
-5
01
-3
11
03
-E
14
-D
04
-8
02
04
-14
-9
-A
-4
-A
-8
05
04
-3
04
-1
01
14
-1
01
-7
-7
05
-B
-4
-D
00
-8
-5
00
04
-5
-6
-4
-1
02
12
-1D
-9
-D
12
05
05
-E
0A
-2
-1
15
-D
17
07
02
1C
-1E
06
-23
1F
03
-5
00
13
-B
-5
19
-13
-1
00
-A
09
10
01
10
0B
00
-3
-8
06
00
-3
03
-B
-11
-8
00
19
-3C
09
-31
1D
02
09
-3
1C
09
-1
10
-A
03
00
07
0E
09
-2
-9
10
-8
-3
-11
0C
-D
08
00
-9
02
06
03
0F
-2
02
-4
-2
-8
-C
-9
0B
-A
-8
0A
-13
06
-7
02
01
08
-9
-4
-2
-9
-6
-3
-6
-C
04
-2
00
-C
02
-2
-2
-6
01
-12
04
00
-2
-3
08
-3
-1
07
07
00
-8
02
23
-17
04
-F
1C
-7
03
-9
22
00
-4
1A
-17
-2
-6
-5
34
-3D
-A
-3A
45
08
07
-B
3A
02
03
3A
-35
-5
-4
06
17
-32
09
-30
09
-9
-A
-6
13
-7
05
0A
-11
-F
04
06
15
-9
-1
-17
12
-10
04
07
10
02
-8
00
-6
-7
-B
-3
00
-D
00
-A
00
-1
-4
-C
08
-F
07
05
01
02
-5
07
07
-5
06
03
07
00
07
06
07
-9
-D
00
03
00
01
00
02
-14
-8
-2
0F
07
-9
03
0B
07
-1
0C
-1
0C
-7
-9
1F
-21
-3
-1E
19
-6
06
06
1A
-2
03
10
-C
-7
-1
-3
20
-27
-9
-20
27
05
03
04
21
-2
08
1B
-2B
-1
-6
-5
-4
00
-A
02
0B
-E
06
-2
09
01
-8
-6
-3
00
05
0A
-4
-4
00
03
09
-9
-2
-6
07
-A
-9
-1
-1
-11
-4
06
15
-20
-8
-1A
0F
-9
01
-2
09
09
06
15
-A
-C
-8
-A
06
-6
02
-3
02
04
-E
-4
0A
-A
-3
17
-11
04
03
02
-1
-B
00
-E
11
-6
03
-1
14
00
-7
0F
00
05
-8
07
0D
03
00
08
-3
-4
04
-2
0D
-4
01
06
02
-F
-2
-B
0A
-14
05
-B
-4
01
-9
-9
01
-7
04
-4
-5
-7
05
06
11
-5
00
07
1C
01
01
-9
1C
01
05
19
-1B
-7
04
-2
2B
-24
07
-26
27
-6
03
06
16
-3
00
16
-25
-7
-3
-3
-31
1A
-A
00
-30
03
01
08
-2E
0A
09
-30
28
-4
-5
-9
09
-C
-7
-11
11
01
08
07
0A
-9
04
01
-C
-C
00
03
01
00
-A
06
08
01
-6
-A
0A
-7
00
13
-C
-5
-3
0B
0A
-7
0A
-C
0E
00
-5
09
10
06
-6
03
-2
00
00
-6
08
-15
00
00
0B
-9
09
-D
00
-9
-B
-D
-2
07
06
-D
00
-4
-2
-16
10
-3
-1
07
0D
-2
-9
0B
-D
01
02
-7
1C
-18
02
-16
24
-8
0A
0C
19
00
-3
24
-15
05
03
-4
00
04
01
05
07
-3
0A
-12
04
08
08
11
-8
0E
07
09
09
-4
06
02
0B
-5
-6
-14
-1
-3
04
12
-9
-8
08
06
04
-11
-1
-20
11
-5
05
-B
-3
-6
-1
05
-9
-2
04
03
0C
-7
-4
-7
13
-D
02
-1
03
-A
-2
11
-7
04
07
-4
07
04
03
-D
07
-A
-A
08
-2
05
08
11
05
-9
01
-4
08
09
08
09
07
-9
-5
-5
03
-C
04
00
-5
00
-4
-2
-A
03
05
-B
-E
-6
05
-5
-E
-2
-7
-C
12
0F
01
00
0F
04
-7
05
12
09
-9
07
12
-A
00
02
-7
06
00
-3
02
-21
-7
-40
01
07
0A
-A
02
-3
04
-2
02
0C
09
02
14
-1
-3
-18
0E
-6
-2
00
0B
0A
05
16
-10
0E
00
08
04
-B
-6
-12
08
01
07
07
-2
-6
-2
06
-3
0C
03
-5
-4
09
05
-A
0A
04
06
00
05
-8
03
00
05
-A
00
06
15
-23
-3
-32
0E
-8
-7
06
14
06
-9
0C
-11
00
08
01
-16
-A
08
-17
-15
-5
-2
-C
-E
-6
02
-F
19
08
09
04
27
-13
00
-24
27
05
05
00
23
03
-2
26
-D
-1
-2
00
23
-35
09
-40
2A
0B
-7
08
23
07
-9
27
-27
00
-2
07
10
-13
-8
-1A
25
-B
-B
-F
22
-6
00
1F
-17
04
02
09
-E
04
02
12
-14
01
06
-7
-4
-2
08
07
-2
-2
03
-3
17
-E
-4
-23
0C
-2
-1
-A
11
-2
03
05
-A
09
-3
05
0A
02
-9
-6
00
-1
05
-1
00
-D
03
07
04
-8
-C
-8
08
00
-5
-B
-2
-4
00
0B
-5
03
04
0D
00
03
02
00
04
01
07
0C
-4
-E
-2
-A
08
00
04
00
05
-11
-9
05
-2
0D
00
-E
-9
-B
-8
-D
-4
02
-5
03
07
0F
-7
-2
-6
-F
-5
-1
01
-A
-2
-5
03
04
-A
05
05
-7
06
08
15
-1A
04
-33
04
-5
-2
-E
00
00
05
02
-B
0B
00
03
1A
-2B
-6
-18
15
-5
-5
-C
17
06
-3
19
-13
24
-4
-6
00
-D
02
-1C
00
-6
08
01
-7
00
-8
00
0B
10
04
-8
09
-8
02
03
-5
-3
-A
02
0B
-5
-C
06
-7
00
00
05
-1
-13
04
-29
-3
0A
05
03
00
-5
08
-7
06
-1
-3
-8
-37
09
-7
-16
-3C
-7
02
-F
-38
02
0A
-30
2D
-2
-3
02
-5
-5
-6
-19
-3
04
-3
0B
-E
-9
-2
-7
00
-9
00
01
-12
-1A
05
-23
-1B
-6
05
-E
-1B
-A
03
-10
0E
-8
01
07
0B
-B
01
-17
07
-6
-B
-10
06
03
-7
07
-14
03
07
03
-9
11
00
02
-6
-4
03
00
05
-6
-A
-5
00
-A
07
01
0B
-21
07
-2B
09
-5
-5
-4
0E
00
03
0F
01
03
-A
08
08
01
06
01
-7
03
-2
-3
02
-9
-A
00
-B
-9
-5
08
-8
-4
08
02
05
-7
-D
-7
09
01
-A
-5
-7
-1
-4
06
02
-5
-3
00
-2
-7
-2
-3
01
-5
04
04
0A
-2
-7
-E
-4
-A
-C
-B
00
-A
-9
01
02
01
-9
05
0A
04
02
0C
01
-A
-4
-12
-2
01
05
00
-3
-4
04
-3
-1
00
06
00
0C
-16
-1
-2D
-2
-2
-2
04
03
02
-4
-2
07
0F
-3
-6
-2A
07
02
-8
-20
09
-1
-11
-2B
0A
-6
-2A
1F
12
08
05
-F
-8
01
-19
-3
-9
-7
-5
01
01
01
-B
09
-5
-3
-6
0A
-12
-1
-9
13
-1
-7
05
07
02
-5
13
-13
-B
-B
05
-10
-E
06
-1F
-A
08
-6
-7
-3
-6
05
-C
00
05
00
-6
04
-1F
00
-26
00
-B
08
-B
08
05
00
05
01
17
04
-1
09
-12
-5
-1E
09
03
02
-3
04
00
-9
0C
01
08
-4
04
-19
0C
-3
-1F
-1B
-5
-9
-2
-C
-7
00
-10
19
0A
-3
08
01
-12
-2
-1C
03
-F
05
-8
02
-C
03
12
-F
08
05
-1
03
0D
-A
05
-B
-D
03
-A
-B
01
-2
00
05
01
05
05
08
-1E
-5
-2B
0D
-9
-7
-A
0E
07
-1
-1
01
04
-6
-A
12
03
-8
-5
05
-C
06
-8
0B
-A
-5
0A
00
01
-B
06
02
-11
-5
-C
04
-6
-C
07
04
-C
-8
17
-12
-7
-B
00
05
02
-7
0B
-6
00
-A
04
05
-E
-6
0A
-B
-F
-2
-3
26
-23
-5
-26
0F
02
-8
-3
0F
-E
07
10
-1E
10
00
-8
-11
-A
04
-4
-14
-C
00
00
-16
03
06
-21
23
04
-3
-A
-6
-1E
-2
-2A
-6
-2
03
01
-2
08
-9
-E
12
07
02
00
-3
-31
04
-3F
-9
00
00
-9
0D
09
-A
-A
04
1B
03
00
-4
-C
08
02
0E
-5
-2
02
0F
-8
-3
06
00
12
08
06
00
00
-5
08
-3
-5
07
-5
-2
-8
-C
-4
0B
-7
08
09
1C
-29
-2
-22
1E
-5
02
-A
15
09
05
14
-1A
0F
05
-4
4B
-5A
0A
-5F
36
09
-3
-6
50
-5
05
43
-41
29
-7
-C
04
-10
08
-12
0C
-E
-6
-3
0F
08
-6
03
-1
05
-8
02
03
-12
-B
-1D
0B
05
03
-14
-2
-4
-6
07
-7
0A
0A
01
20
-6
-3
-6
11
-3
06
-19
0C
-B
07
18
-1A
0E
-3
06
-7
-7
-1
00
-D
-9
-8
00
-C
00
09
-4
-1
-D
04
07
-5
-2A
01
-33
08
02
-5
-7
0C
06
-B
07
08
05
-8
-9
06
00
-8
05
0E
-B
-6
-6
05
-8
-8
0B
05
-A
04
-8
-B
00
-4
09
02
-6
02
04
-4
-E
-C
-4
03
-A
-1
-2
01
06
-A
07
06
-6
04
-4
13
-2
01
09
-E
-A
-5
04
14
-1E
00
-22
15
-A
03
-D
23
-8
00
0F
-1E
02
-9
04
01
00
07
-6
-F
-D
04
01
-E
09
-6
-A
06
-3
01
06
-23
-1
02
-C
-22
-10
-A
-B
-11
-A
-1
-16
14
0C
0A
-4
-6
-B
-9
-16
-2
03
-1
-6
-9
00
0A
-B
16
1B
09
06
-A
-B
-5
03
-3
03
-7
00
-6
0A
06
-13
02
0C
00
-8
-1
-1
03
05
05
07
00
-7
07
-E
09
-A
-3
-11
05
-6
0D
-5
03
07
1A
-7
07
-3
0B
05
-8
0F
-6
0D
04
01
10
-1D
03
-2A
19
01
02
-B
1E
01
-6
1B
-11
0F
0A
-4
-1
00
00
08
04
-9
-9
-4
0E
-5
-8
08
06
00
00
00
0F
-D
05
00
12
-7
-7
00
10
-6
02
03
04
-9
09
07
01
13
-A
04
13
01
-C
-14
00
-B
-3
-3
-4
10
02
04
-3
0A
-7
00
-1A
-D
0A
0C
-13
00
-2
-6
07
-F
-8
-9
02
00
-6
-3
-1
-C
-D
-7
-E
-2
01
-6
0F
09
07
01
00
06
07
07
04
02
-C
02
0B
-B
05
05
-4
-5
-9
-6
-9
-7
03
00
-E
-9
-9
-3
-1
00
-A
10
-B
03
-B
03
06
04
-4
-6
09
-1
-9
-E
00
-4
-A
04
-C
-10
08
-7
08
-D
-8
00
11
00
-5
-8
0B
-F
-5
10
-1
16
09
06
07
-6
01
02
00
03
-D
-12
0F
-5
-2
02
05
0C
00
-5
-10
0A
-A
-F
-10
-6
-5
-C
-8
00
01
-18
0C
17
06
-5
11
-24
08
-C
07
-3
09
-2
08
02
-1
11
-5
2B
-A
06
10
01
06
-6
08
-F
00
-1
00
09
04
13
-9
05
-7
06
17
00
-7
-C
0E
-1
-B
04
07
-7
07
11
-A
-2
-C
-5
28
-10
-1
-4
1D
-9
-E
-7
23
06
-8
14
-10
-7
00
-7
-F
0F
-4
00
-6
-E
-A
-3
-18
-1
05
-17
1D
-2
-1
06
02
-E
01
-1
03
-6
00
03
10
02
-5
0C
02
-15
-2
09
28
-22
-9
-16
26
-1
-B
-F
2D
-9
-5
26
-2A
-4
07
-1
01
0B
-A
14
03
00
05
00
06
-D
00
-5
-1
09
06
-B
01
0F
-1
0A
-12
-3
08
-6
-7
-D
00
-2
08
-5
-9
00
09
-D
-5
00
0B
02
00
-11
-9
-3
-A
-4
0A
-1
02
04
0F
-8
08
-6
0F
00
-8
-7
11
-D
-A
03
-4
04
02
-9
11
00
-5
-7
0F
-1
00
-E
15
-4
-B
04
04
07
-C
-1
01
-7
09
-9
02
-B
-5
-1
13
01
-8
04
00
-A
-A
-6
08
-6
-9
00
0D
-10
03
-6
05
00
-6
0F
01
19
-3
00
05
-3
-4
04
03
03
-1
-5
06
-9
-1
07
-4
01
06
-1
02
-7
-3
-1
-F
03
-7
-6
08
-B
09
-5
0D
-1
0C
07
-2B
22
01
29
-25
-11
-9
06
-20
-2
03
-26
2A
-A
-4
-2
01
-8
07
-B
08
01
-8
-E
-4
-3
-6
08
-A
06
07
-3
14
-D
08
-6
04
-4
05
-D
0A
-F
02
0A
-E
-4
-8
-1
0D
-1A
00
-6
0E
-5
-6
-C
13
-4
-A
05
-19
-6
-6
05
10
-9
-9
-3
0B
-2
-6
06
0D
-F
-5
05
07
03
-6
03
-4
-7
-8
02
0A
02
-C
-2
0A
-5
-1
09
-1
-9
-4
-4
0C
-E
03
02
08
-9
-B
-3
01
01
-8
0E
-1
0B
-4
-9
20
01
04
16
1E
-4
00
02
2A
-6
-1
1F
-1D
09
04
06
0E
-13
-3
-10
17
00
-E
-A
21
-C
06
19
-1E
03
-A
-A
12
-9
-1
-9
0C
01
-5
-2
11
-5
00
03
00
-C
-1
0A
02
18
07
12
-2
07
-7
04
-C
0A
07
02
05
-6
-8
08
08
09
05
-3
-4
-3
05
00
-4
-B
-A
02
0B
-7
-C
01
00
09
-B
12
-3
-A
03
01
-A
01
03
00
02
01
-8
-4
09
13
-3
0C
-4
-2
02
03
05
-5
-9
05
03
-13
-6
-5
00
0D
05
-6
-B
00
00
-C
-A
-3
0A
01
0A
-C
06
-5
0B
-8
00
-14
01
-9
03
-8
-C
03
08
-7
-6
0C
03
09
22
-13
0A
-1C
1F
-9
07
-E
15
07
-5
13
-11
00
0A
-8
08
0E
-7
0B
12
00
02
-7
00
00
05
-5
05
-6
06
-B
-7
00
06
03
01
00
-C
-B
-A
00
-8
06
01
07
08
07
1E
-C
-A
03
1E
-5
-6
-1
04
-2
-2
0A
01
16
-9
08
07
-2
05
08
00
06
-3
-2
0B
-4
02
04
-6
-B
-A
01
-F
26
02
20
-F
-9
-2
00
-F
02
05
-B
20
-C
-7
04
00
16
01
04
11
05
08
-3
-7
-A
0D
-2
03
21
03
-E
1E
-8
-5
03
22
00
-1
-F
13
00
08
18
-22
-4
-9
-3
0A
-9
00
-3
07
-A
-D
-11
0E
-7
-1
12
-E
04
-A
00
04
09
-4
0C
0F
-B
00
-2
-6
-8
02
02
08
-3
-5
-2
-2
06
-4
12
-A
05
-8
-8
-8
-3
-6
-5
14
07
-B
-B
08
-8
06
-9
02
-10
00
-4
10
-9
09
0A
-3
-D
-A
00
-9
10
-6
-3
-2
09
-8
-5
-4
-9
-B
-A
09
-1
-2
07
25
-1C
-4
-1C
20
-5
02
-B
1A
00
-7
1C
-E
-4
-9
-5
0F
-B
02
-7
0B
-F
-D
01
13
-5
09
0D
05
-4
09
03
00
0D
-8
0B
0F
-7
-2
-D
05
07
-9
03
-2
14
-2
-7
28
-8
08
-1E
23
-8
-5
-1
16
-9
06
20
-F
06
05
-1
-1
16
-5
05
-A
-9
08
-1
-6
05
-9
-9
0F
-1
06
-5
-3
-3
-C
-1
05
02
05
-8
-1
0A
-A
09
-8
-5
-9
-9
05
09
07
01
12
-3
-5
-D
00
-F
02
07
00
03
-B
03
26
-C
-1
-15
24
00
-2
-7
29
04
-4
2D
-19
03
0A
03
0D
10
07
03
00
-9
05
03
07
04
00
-8
02
07
-6
-5
00
18
03
0E
-2
-5
-1
00
09
-5
06
00
07
12
-1
06
08
0C
06
00
0D
-8
06
-8
15
03
09
05
-F
05
-8
00
28
-1E
-A
-14
18
-B
-1
05
17
-5
09
1A
-24
-D
-8
-1
13
-5
03
-D
20
-8
00
-1
10
00
-7
16
-13
00
08
04
-F
-1
-9
0C
-E
-7
-6
-8
-C
-4
06
-4
12
-A
-C
-3
-B
00
03
01
-A
-3
-D
-8
-3
02
05
-2
08
06
-6
01
09
-9
02
09
0D
-B
00
-1
0A
-3
09
00
-A
00
01
-C
0C
-1
-8
-F
13
00
-6
-F
0B
-F
07
18
-D
-8
-1
00
00
10
0A
0C
00
09
-4
-4
-7
06
-4
00
13
-8
-A
-A
-8
0A
09
04
00
04
03
-C
-F
-A
-9
-17
0D
-1
-9
-A
29
-1E
-4
-14
15
07
-2
-4
1D
-6
-7
13
-19
0E
-6
01
20
-2A
-4
-1C
19
-E
0A
-A
1F
-2
-4
21
-15
-A
01
02
0B
-1D
-A
-12
14
-2
-4
-8
09
08
-A
11
-3
05
-9
00
02
-B
01
-20
-2
-F
-8
-1
00
-2
01
-6
0D
06
-2
-A
13
-10
00
-1C
2B
02
06
-11
1A
-2
01
22
-19
0D
0A
-8
-10
07
-8
-C
-C
-D
07
00
-B
-7
02
-E
13
-3
07
00
-A
12
09
-7
-7
07
-1
-2
-5
01
-6
-13
14
06
-2
-7
00
19
0B
18
-2
-7
-2
-6
-D
00
00
-4
0A
06
-2
00
15
-11
-4
-A
14
04
-9
-E
19
-E
00
13
-11
01
-B
-6
0A
-9
-6
-15
05
-10
-2
-5
06
06
05
-9
0E
-4
00
-9
00
00
-2
-4
05
-6
-8
-5
-3
01
04
-6
-1
-D
-2
00
-2
09
-B
0A
-6
-5
06
-10
-D
-8
00
-F
13
00
-7
-3
-6
-6
01
0B
0F
-A
00
-A
06
02
-3
-3
-3
04
-4
02
-4
1E
05
13
-4
01
03
00
-D
04
-1
-2
16
-A
04
-2
-13
1B
07
1E
-12
00
04
-8
-20
09
-7
-E
1C
00
02
-5
0A
-19
-8
-1E
04
00
-4
-C
0C
00
00
0D
-7
13
06
-3
0A
-11
-6
0D
0D
-9
02
-9
06
-3
04
02
-2
1F
03
-9
02
-B
-2
-1
-9
-1
00
05
-3
02
-1
04
07
-6
04
-B
01
-2
-9
-6
-5
-5
-B
-2
00
-8
-4
08
02
04
04
-6
-C
0B
-B
02
-18
-10
02
-B
-23
-2
00
-D
26
01
-1
07
02
-1
-A
-6
-A
-6
-6
-6
-A
05
-1
-D
0F
06
05
02
08
-6
-8
-4
-5
-C
00
-3
00
02
00
-3
09
-5
-1
-5
-16
0B
-1
10
-18
01
07
-F
-1A
-7
0D
-11
0F
00
04
-8
05
14
0A
00
0D
-2
-8
00
05
-C
03
00
-7
03
-6
-5
-3
-E
05
07
05
-6
-4
-7
0A
00
-A
02
-C
-B
-6
-1
-16
-5
00
-1
-F
-10
00
-D
-1F
08
-2
-D
1E
-3
05
-3
-6
05
07
00
04
02
-3
-2
03
04
02
02
07
00
-6
0A
-A
-4
-1
-6
-1
-C
-5
-7
-C
-6
-2
05
0F
06
-7
04
06
-4
-7
02
0A
-B
04
04
-5
-E
00
00
-6
-3
04
03
04
00
-6
-8
-4
-D
00
00
-A
-5
-7
-3
0E
-7
02
-B
09
-7
-2
-B
0C
-3
-1
00
0D
-7
-9
00
00
09
0A
-4
2D
-3A
-3
-4D
35
08
09
03
26
07
-6
39
-25
04
09
01
13
-1D
04
-1B
10
02
-1
08
10
-4
03
17
-16
04
07
09
04
-F
09
-13
00
-5
08
-5
00
09
-4
00
06
00
08
-6
08
06
-3
01
-7
-C
00
-11
-6
02
00
-2
00
-6
03
-3
-4
-C
-8
05
-C
09
-8
-3
-16
-3
-2
-B
17
02
03
06
-A
-9
06
-18
-2
08
-A
-B
-10
02
03
-7
0F
-B
-2
04
18
-1B
-A
-13
15
-4
-5
-A
0E
-1
07
10
-A
0F
03
07
-16
0C
0B
21
-18
-9
05
05
-27
-8
04
-1E
2B
0E
-6
-5
0A
-2
04
01
0E
00
-3
00
15
-D
08
08
-4
-F
-1
04
06
-D
-7
-A
-F
-1
-3
02
00
-B
-4
-9
0B
-7
00
01
00
-8
05
-F
08
07
00
-F
-E
-4
-5
01
0F
-4
0A
-A
01
03
04
-9
07
-1
00
-1
-6
-7
-1
04
05
-C
00
00
05
08
-9
00
09
08
-6
-3
01
-7
-7
01
-4
01
08
-A
04
00
05
-1
03
-7
-B
-4
01
-F
-2
0C
08
-7
-6
06
00
-5
05
-D
07
-D
-E
00
-3
-1
-B
01
-2
-C
-A
-B
0F
-17
-2
-16
14
-5
07
-2
03
04
0A
0B
-10
-E
-C
05
0D
-17
04
-28
18
-A
06
-A
10
06
-6
0A
-11
05
0B
-1
01
-B
-B
00
03
-4
05
-C
00
05
07
00
02
-1
-1
-2
23
-20
-B
-29
1E
-B
-4
02
16
-9
-4
22
-19
03
-4
06
07
-C
06
-8
11
-2
-A
00
0E
01
00
19
-10
-2
02
00
15
-B
07
-9
15
07
-2
-7
05
04
01
12
-12
0F
-8
-4
-13
-8
00
-1
-B
-A
-3
-3
-E
00
-5
-5
14
02
00
01
0D
-15
-3
-12
06
-3
-8
-6
00
-8
-A
0A
-8
-3
09
-9
-7
-A
06
-15
05
02
-6
-D
-4
-2
06
0A
00
0D
0B
03
10
-15
-9
-1A
1A
-5
-8
-C
20
00
-6
1C
-22
-1
-1
09
14
-F
-3
-7
13
00
04
-8
10
-1
07
00
-12
02
-8
08
05
05
00
-2
08
-A
-4
-6
07
03
08
04
0B
06
-B
-9
-1
-1
02
-E
-3
03
-1
-4
07
03
09
-1
02
-7
-B
03
17
-7
-3
-15
02
-9
-C
00
10
05
04
0A
-8
06
-A
00
01
-4
08
00
05
-1
04
-2
01
-D
-6
00
-F
05
06
00
03
07
-8
-1
05
-2
-7
-7
-6
-A
-9
-4
-9
09
-4
-A
-4
05
-8
01
-5
-1
00
-2
09
02
05
-4
-1
03
-7
-9
-1A
04
00
00
-C
06
09
-E
-6
05
09
-6
04
0C
-3
00
-2C
22
-4
13
-27
-A
-8
-8
-13
03
-7
-1A
26
05
05
-9
-6
-E
0B
-6
0D
-7
02
-3
08
04
-3
01
03
00
00
04
0B
-1B
04
-12
0B
01
-B
-8
0B
-D
0A
12
-17
-7
03
-4
-A
-6
-A
02
04
02
-3
-12
00
03
09
-7
07
04
07
04
-7
2B
08
29
-D
-5
09
-13
-13
04
-4
-2
05
10
04
-3
1D
-12
01
-18
2B
-E
01
-F
25
00
05
18
-15
0B
-1
-8
08
-14
09
-1C
06
-3
08
-8
12
01
08
0C
-12
0B
06
-2
26
-15
09
-C
1B
-5
-3
-16
1F
00
-4
22
-16
-B
-6
-8
0D
-D
-7
-F
11
00
03
00
11
-F
08
0D
-6
02
03
-4
01
03
-A
05
-1
-6
-5
-5
-5
-2
-3
01
00
-2
08
-A
0E
-10
-4
-E
-4
-1
-2
-B
10
-A
-A
-1
-8
03
08
01
03
-6
-9
-2
06
-A
-E
02
04
-C
03
03
-9
-A
-1
06
09
-C
-1
05
00
-2
-B
00
08
05
-5
03
-3
-B
06
04
09
0E
-3
00
00
-5
-8
-12
07
04
-8
-2
-1
01
-1
-2
-21
10
06
-9
-14
-7
0A
-6
-14
-8
-7
-23
15
-9
06
-5
-17
02
-1
05
-7
-3
00
-8
-7
-2
-6
-1
03
1C
00
-3
41
-1B
-5
-B
48
-6
05
-11
34
09
-5
34
-28
21
-9
09
-1E
0C
-2
06
-D
-8
00
-10
-1B
-8
-8
-1F
0C
00
-8
-5
-5
04
-2
-2
-D
-C
-2
03
-5
-B
00
05
04
-6
-9
05
-13
07
01
0C
-9
-10
0B
-15
-11
-4
-8
-1A
19
0C
0B
02
19
00
08
07
28
-8
-4
-B
1C
-A
0B
22
-25
27
-2
01
0D
-6
03
-1
05
-6
05
-3
06
-4
09
-1
-6
-1
-6
-A
21
-6
-6
-1B
0D
-A
02
-3
16
-6
-A
19
-1C
0B
09
-9
0C
-8
-4
-17
0E
-C
05
-A
17
-3
-3
0C
-7
05
05
-7
11
-6
-4
-1C
01
-9
-3
-2
0F
-B
00
10
-8
00
-C
0A
-E
22
05
11
-11
-B
05
-10
-17
07
06
-11
16
06
-9
00
05
-8
05
04
03
-1
-D
03
-5
-9
-4
07
-7
01
-6
-2
0C
-3
-9
-7
05
-C
-B
-8
0A
-D
02
04
0A
-9
08
-6
-1
00
02
-A
-4
-A
02
-C
0C
-2
06
04
-6
-E
-1
-5
-1
13
06
15
08
00
01
-6
02
-C
-3
06
-1
00
-4
-8
-13
16
-7
01
-22
-6
08
02
-12
00
-8
-D
13
-9
03
09
-3
-10
-8
-B
-8
-11
-2
-C
-3
-9
00
00
02
1A
-2
00
27
-3
05
0A
39
-C
-9
-14
2A
07
-8
33
-2A
0B
-5
03
-2A
0F
02
09
-1E
01
0B
-2
-21
-4
-2
-29
29
-C
-6
08
-5
07
-8
-10
-8
-9
00
-9
02
-C
-2
-10
0C
03
07
-3
-20
05
04
0A
-C
-7
-8
-15
-1F
-2
-5
-21
17
07
07
08
1D
-17
0A
01
21
-5
07
-12
18
0A
-3
27
-1C
0D
09
-4
06
-D
-D
-8
04
-3
-9
00
00
-A
-1
-3
-3
02
-A
03
17
-9
08
-1
0D
02
02
00
09
-4
01
17
-13
0A
02
03
10
-18
-1
-17
1D
-7
-5
-1
22
-9
0B
1C
-F
-2
-2
03
08
-9
-7
-22
06
-7
02
06
0E
-8
04
0F
-1
-5
01
04
-12
-3
06
02
00
-3
02
-10
-10
-5
-D
-5
12
0D
01
-B
-3
02
-2
-5
-1
-9
-D
-8
00
-F
00
02
03
-B
-8
-2
-6
-8
01
02
01
-5
-5
-7
-B
-D
08
03
01
-2
01
-3
06
0A
-2
03
-2
-B
00
-4
00
-A
-5
-2
07
-F
01
-A
07
03
05
03
0A
-D
-9
-5
-2
-1
03
0A
0C
-1
-1
00
-2
03
-9
00
-A
-E
03
-6
-8
00
04
-3
03
08
-6
-5
02
-15
-A
-7
-B
-B
03
-B
-C
06
01
-B
08
16
05
-6
3B
-1A
-1
-1E
43
04
05
-F
36
0A
05
46
-38
0B
-8
-3
-D
03
-7
00
-14
-6
05
03
-10
-2
05
-11
12
-3
-6
00
-6
09
-3
06
-B
04
-7
-C
-3
-7
-7
-E
08
-A
08
09
-6
-10
06
-A
-8
03
06
-B
-17
-7
-C
-8
09
0A
02
02
-11
-17
02
-F
-E
-2
-9
-7
-14
08
-6
-23
14
00
06
-3
06
-16
07
-28
18
-8
-3
-1
06
01
-9
0A
-8
08
-6
07
05
-19
05
-A
18
02
-9
-6
11
-7
08
11
-3
09
01
-1
14
-21
05
-13
24
-1
03
-6
29
-A
00
2A
-1B
-C
-3
02
08
04
-8
-16
01
-B
0A
02
0E
00
-4
07
06
02
-5
01
0C
-B
-9
-11
16
02
-3
-D
0D
09
-1
-2
-6
03
03
-B
-2
0A
00
-7
-B
-2
-8
08
00
02
-8
01
0D
-D
01
-5
-4
-3
-4
-6
02
-4
04
-4
01
-2
-A
09
-2
-C
-B
04
-7
-3
07
04
-6
03
-D
-8
00
-B
08
00
-9
-10
-B
-8
03
-5
00
-2
02
-9
0A
-F
-5
-4
02
-4
-9
-7
04
-8
-13
0F
05
-1
-1F
-1
02
-9
-D
-5
09
-1D
1A
-C
-6
-2
13
-35
0A
-2B
01
-5
04
-12
09
-1
-8
0E
00
0F
01
0A
2E
-3F
-2
-26
20
-F
-5
-10
2B
-7
-6
1D
-1F
09
00
-8
09
-10
03
-1E
-2
-4
-B
-7
08
-5
-8
-1
0B
06
0B
-1
-D
05
-8
08
-11
-8
-3
-B
00
05
01
-D
0E
-1
03
-5
-F
-1
-9
-12
-B
00
-1
-14
-22
-8
00
-19
12
0A
02
-2
-16
-E
-7
-10
-12
-1
-4
-7
-14
-6
-B
-10
15
14
-A
09
-14
-2
08
-5
-B
03
04
02
-A
04
-3
-14
0F
-3
-2
-3
-11
-4
06
-9
-14
00
-7
-D
-8
-A
-2
-B
19
08
-B
08
25
-15
03
-7
2A
03
-A
00
1C
-D
06
18
-18
-6
05
-A
10
-D
03
-5
00
-5
06
-7
0C
-1
-3
04
-D
-1
-5
-B
04
-13
-8
-19
03
-B
-9
-A
-8
06
-7
00
0B
0A
-A
-B
00
-1
-4
0D
-2
-7
-6
-6
0C
-1
-1
0C
08
00
08
00
00
00
-8
-3
-B
05
-1
-E
03
-4
09
04
0D
-7
-4
05
02
01
00
0C
02
-A
05
-1
01
00
00
06
05
-A
-6
03
10
-D
05
-1F
09
02
-A
-7
0A
-C
-A
07
04
00
01
-6
-C
02
-8
0A
-7
03
-6
-7
-9
-9
04
00
15
0E
00
-6
2B
-2B
07
-4B
29
-B
03
-12
19
02
05
1F
-13
12
05
03
-2
-27
-5
-32
17
-A
09
-10
06
02
0C
-7
08
08
00
02
-D
-7
-1
0A
-2
-3
00
-13
-D
-8
07
-3
16
12
02
-5
-3
-7
-B
0A
03
02
0A
-12
07
-1
04
0E
-1
-3
05
06
05
09
0B
00
04
-B
02
-9
-5
-2
03
-4
05
0B
-9
02
18
-1F
-2
-46
11
-8
-6
-1
05
-1
-1
11
00
-3
-7
09
-1
0B
-6
03
00
-A
03
-10
-9
01
-8
-3
08
0A
-5
-B
-16
04
09
-3
-5
-A
-B
-4
-19
-1
-3
-B
20
-7
-C
-5
12
-2
04
-16
11
-C
-5
-2
1A
02
06
0E
-19
-6
-3
03
0A
-1B
-B
-1C
19
-C
05
-B
0F
-B
-7
0D
-1A
00
-3
-5
-1
04
-B
-D
-B
-7
-7
-8
-2
-4
-7
-9
17
0E
-6
-6
07
01
05
05
03
-3
-9
-6
0B
-F
-4
09
00
-D
-B
08
-1
01
00
04
-1
-7
08
-5
-4
00
07
04
00
-3
06
04
06
01
-8
04
-2
-A
-5
-5
10
-2
02
0B
-7
-1
01
-A
06
-5
-2
-C
04
-A
-1
-7
00
04
0B
0E
-6
06
08
-5
-B
1C
00
12
-D
-8
-9
-3
-5
-A
09
-D
13
07
-B
04
14
-30
06
-2D
1B
-1
-3
-B
0D
-4
-7
04
-7
11
00
08
16
-E
-C
-1A
14
-6
00
-7
01
09
06
0A
-8
1D
0A
-5
09
-9
-4
-15
1F
-E
00
-D
0E
-4
04
1C
-11
-D
07
-A
-5
07
05
-2
-7
02
05
-5
-2
-D
06
09
05
-8
04
00
00
0C
00
13
-3
-7
07
02
-4
04
-8
-2
08
-A
-A
-6
00
-D
-9
-29
0E
-9
02
-C
04
-3
07
00
05
0D
06
01
0D
0B
02
04
06
-A
-7
-A
0E
0A
-5
03
04
00
09
-7
-8
02
00
19
-E
01
-1
03
-8
00
-7
-3
05
-C
09
00
08
00
00
10
07
03
-6
03
-5
05
01
-7
0C
-C
-3
-8
0D
-7
-3
-8
0C
-A
-3
01
05
03
02
0D
05
-3
-B
00
-10
00
-8
-1
-10
-F
-A
-7
-14
07
02
00
11
03
08
07
15
05
-3
-2
08
-7
-6
-9
12
-2
05
09
-F
-7
-5
09
0B
-B
-B
05
0E
02
03
-7
07
-4
03
0F
-10
-3
-A
-3
0A
-1
-5
-6
0E
-A
-7
00
15
04
-3
13
-A
02
-9
-5
-3
-2
04
-3
08
-10
06
-D
01
-2
00
0B
02
1E
-7
00
00
15
-5
1B
-11
-8
-7
-3
-5
05
07
-12
12
01
03
05
-7
1C
04
10
-14
-A
-A
04
-12
-5
0A
-B
17
-1
07
-1
00
04
-2
0B
-6
-4
03
-C
-B
03
-4
-B
09
08
06
08
12
-1
-B
-A
13
-8
-5
-C
11
04
-4
03
06
02
-6
-9
20
-A
05
-C
15
-5
04
-8
1A
00
-8
26
-1F
-7
07
06
0A
-A
-6
-3
17
01
03
-10
0D
01
-A
18
-9
-15
-3
-1
16
-8
-4
-5
1C
-9
05
06
04
08
02
08
-3
-4
04
-B
06
0B
02
0C
-1
-3
-5
-2
0C
-3
-1
05
0C
03
-3
-6
12
-14
-D
-19
16
-7
-5
-18
14
06
05
0F
-14
-5
-6
-3
14
-B
-2
-D
1B
03
-A
-A
0F
-1
-4
0F
-7
0B
-1
-9
1E
-13
03
-14
0C
-B
00
06
1B
00
02
0D
-D
0A
-3
-7
-6
0F
-C
03
-F
-1
-1
-C
-10
03
-8
-9
02
-1
03
00
-5
13
00
0F
07
04
-8
-C
-6
-1
01
-3
00
00
03
-B
00
-3
08
07
-6
-2
-1
-2
0B
-5
-9
07
-4
07
-5
-3
02
03
08
0E
00
0A
-7
-8
-9
-B
06
06
08
00
-B
0C
00
0A
08
07
-A
02
03
-A
-7
-F
00
-D
06
-C
-B
-B
00
-B
06
-C
00
-4
01
-8
-1
-9
02
0D
04
-5
-2
06
07
11
01
-8
09
08
00
-14
-1
-9
-5
04
05
-14
04
03
27
-20
-A
-24
21
-A
00
-16
19
08
-3
1E
-D
-2
-3
05
00
26
-9
17
-5
07
07
-12
-12
-8
08
-9
19
13
-5
-7
00
16
-5
13
-A
-2
01
00
-7
03
00
-9
0A
-5
-7
06
0B
07
-2
13
05
05
-9
-9
02
02
0B
13
-4
07
00
-8
-2
-F
05
0C
07
01
04
00
-5
-7
02
02
07
-9
02
02
02
0D
-B
0D
-7
-10
-1
-13
08
-7
05
-5
05
00
-6
09
0A
09
01
04
18
08
-4
-E
1C
-1
02
14
-16
12
-5
-B
0F
-E
00
0D
03
-7
01
-2
15
-7
06
02
-F
0B
-5
-2
02
-F
04
-19
06
-3
-A
-7
04
02
-4
01
-11
06
03
09
0B
03
06
1A
0D
02
-2
-4
01
03
05
-6
0B
0B
01
-6
-6
04
09
09
-3
-6
05
-1
00
-F
06
06
06
-2
-C
-2
-9
0B
06
0F
02
-2
07
-1
01
-5
02
-4
0F
04
-1
06
00
01
-1
-2
00
01
00
02
02
03
00
04
00
-2
-B
-1
19
-5
-2
-A
0C
-9
-D
-C
16
-C
02
0E
-12
-4
05
-6
-3
09
00
-3
-6
08
07
-14
-6
-9
-8
-7
0F
-D
09
03
-6
1B
-6
0F
-15
05
01
-13
-9
-B
03
00
11
03
-2
08
04
08
07
05
-A
01
03
-5
-1
08
05
-1
12
03
03
-4
-D
25
-4
25
-D
-F
-B
00
-10
01
-2
-11
14
07
03
-6
-B
1A
02
0D
-3
07
06
-4
04
-3
-8
-4
0B
02
05
03
-1
09
-B
15
-C
-E
07
0B
-7
-8
07
-3
14
-A
-5
07
0F
-12
-7
01
15
07
-9
07
17
-1
-2
1D
-8
-9
-3
04
08
19
05
14
0D
04
-B
00
-6
-6
-A
04
08
01
-4
06
-11
1A
-1
2A
01
00
-6
05
-1
-5
0A
-E
04
-6
-8
-5
1B
-3
-A
-8
12
-3
-1
05
0C
-8
-3
14
-15
20
09
-B
0B
00
-8
-2
-4
01
-B
-E
0A
-5
-6
03
-B
00
-1
-9
11
09
06
13
09
04
00
-4
05
-1
-5
09
03
03
-9
04
-10
15
02
04
-A
-B
05
-5
-5
06
-8
-15
06
04
04
08
-D
0D
05
07
-B
00
05
00
-14
04
-7
-10
16
-D
00
07
-8
01
-4
-1
04
-D
-4
03
-1
-2
06
00
0D
-3
-3
00
01
-8
-1
01
0D
00
05
00
0E
-9
-3
16
-3
02
-B
-2
-7
12
-7
12
-9
00
-5
-C
-3
-F
03
-5
17
-A
07
07
0D
14
-9
16
08
01
-4
-4
0D
-7
-8
08
-3
-8
-A
-4
3C
-2B
-2
-20
4F
01
-6
-A
39
00
-6
3B
-3C
04
05
-1
-7
05
-7
00
-E
-6
-6
00
-4
-6
-8
-6
0E
-E
-1
-B
-18
23
-9
13
-15
-4
-2
-5
-1A
-3
-2
-12
16
04
-2
-7
-9
16
0A
0A
-8
-1
07
-7
-2
-5
-4
04
04
-10
01
-5
10
-8
00
-8
-3
-C
07
-2
05
-5
06
03
-9
-A
09
00
-3
22
05
06
-5
00
-8
-13
-14
-2
03
-10
0A
-15
-7
09
-1A
0B
-8
18
-19
-9
06
00
-A
-1
01
-7
15
-6
-1
-6
-1
12
01
11
-6
07
-5
-7
01
-5
00
-7
05
1F
07
-B
01
07
09
0B
02
-8
-3
-12
-6
04
00
-12
0D
01
-4
-6
-2
17
01
06
07
03
-1
-E
-2
-4
03
08
0B
-B
05
-2
-19
16
-A
06
-17
09
-3
04
-C
04
02
-C
14
-9
-8
-B
-8
08
-3
12
-4
01
-3
00
-F
-C
04
-16
1A
-3
-4
-A
-3
09
09
04
05
06
01
-A
03
02
06
-1
00
-2
05
-4
-1
17
-5
15
06
04
-7
01
-2
-A
03
-5
0A
-1
01
-5
-1E
18
0A
14
-19
-A
00
01
-1D
-D
-6
-1C
22
-12
-3
06
-7
06
-1
04
08
-10
-5
-7
0E
-E
07
0C
01
02
-4
-9
14
01
01
2B
01
03
03
00
0E
-3
02
07
03
0E
-2
04
-C
03
05
0A
-8
-11
-1
-14
00
07
02
00
05
-A
08
-5
-14
1A
-9
08
-1B
-B
-9
05
-12
-9
02
-E
15
-3
-2
-2
-10
06
-3
15
-11
-6
-2
-E
-F
-E
0B
-11
11
-18
-A
-4
01
06
08
-1
-12
-11
04
-C
00
-9
-9
00
07
-8
00
-3
-15
0C
-8
16
-14
-3
-2
-5
-14
-3
-3
-2
09
-C
-1
-3
19
-6
-7
-6
14
-3
04
-D
0C
-5
-2
16
-6
-9
-7
03
-14
1F
03
23
-14
-2
-A
-10
-17
-8
-1
-4
12
18
00
02
00
17
00
0A
-D
07
07
02
-13
02
-3
-6
15
-4
-7
-4
-13
17
00
0B
-6
-F
-3
-10
-9
-8
05
-12
16
-C
04
-3
-E
0F
07
07
-D
03
-4
-5
-4
-3
0A
-C
19
00
-9
09
-6
-1
02
02
02
-9
-8
04
03
05
05
-A
00
01
-1
-B
-E
0A
-8
-1
-7
-1
-4
-A
-C
-3
-9
-2
01
-8
-7
09
-20
21
-1
2A
-11
-9
07
-F
-1C
-6
04
-1A
23
06
00
-3
08
00
-4
07
-3
00
06
-F
-9
03
-B
-E
14
05
04
08
-4
12
-1
00
-7
-D
-A
02
-D
0A
04
-5
01
0B
00
-3
00
15
-7
01
04
-11
-4
-3
-9
08
-3
00
00
09
-7
-6
0B
03
-2
09
11
-3
-3
-A
04
-6
-E
-B
06
0E
00
04
-15
02
-2
0A
-11
02
-9
00
-B
00
-2
-5
1A
00
-5
-4
-6
0F
01
0E
-7
-3
-D
-F
-F
-D
00
-3
10
00
-2
-4
-C
13
09
1B
-8
02
-2
-17
-12
-A
-6
-6
0C
-19
-6
06
-E
05
00
12
-8
-7
-1
-2
-6
-9
04
-2
16
05
-7
-A
-C
13
04
-3
-17
09
09
-6
-F
03
-3
-B
02
-F
-3
-1
09
0B
08
15
-9
-8
07
04
-5
-5
0B
-3
-9
09
-4
07
08
00
05
05
00
-9
-9
0A
-6
-E
08
-8
09
-9
-4
03
-E
19
00
18
-F
-7
-9
-11
-1F
-9
-D
-1C
10
-C
00
02
-D
11
06
07
-5
-9
-9
-9
-A
00
-7
03
09
-C
-9
02
0D
0A
-A
01
07
03
02
-9
-6
-E
-4
-2
-2
00
-1
-C
-1
0E
-7
0B
00
02
-1
06
-C
00
-9
02
0B
05
06
03
-9
0B
-3
-3
-2
-11
-7
-C
-9
00
-5
-A
07
-A
03
-1
18
-17
-5
-F
22
-3
01
-F
0C
-5
-6
21
-B
-4
02
00
-E
06
08
04
03
-A
09
-A
-9
00
01
-5
0C
0E
-1
-A
-41
22
-5
2C
-3A
09
09
00
-40
08
04
-3B
30
08
0A
-3
-2
16
-3
1C
00
-2
02
-A
-3
06
-3
-4
14
0F
0A
00
01
-C
07
02
0E
-B
-3
-F
-1
-7
-A
0E
-8
-6
00
-A
23
-8
-3
-14
20
-6
-1
00
17
09
00
1F
-1B
0D
00
00
-5
17
00
18
14
01
00
-C
-1
0A
-2
0D
-E
0C
-5
-2
13
-17
-A
-F
19
-6
-9
-3
1D
01
00
21
-1E
0B
09
06
1B
04
-6
04
18
08
0A
-D
04
02
-2
08
-10
12
05
-A
28
-13
-6
-15
2E
-A
-9
0B
30
-C
08
24
-29
05
-4
03
0E
-3
-C
-6
05
06
-7
-F
0A
-A
05
0E
-8
00
-1
-8
-8
16
02
20
01
-A
-2
-F
06
-3
-7
-1
0C
00
04
-9
-7
-1
-7
02
-9
07
03
04
01
-5
08
07
09
-7
-B
-7
-8
-3
-2
-C
07
05
-E
-7
-1
04
-A
-8
-4
-9
07
-5
08
01
-B
00
-6
-2
-4
03
0B
-B
04
05
-5
00
-4
08
0D
-6
00
-11
11
-F
02
04
10
02
00
17
-1D
-C
-3
02
-1
00
-B
-2
16
07
-8
-D
15
-4
-8
04
-A
14
-4
00
-25
0E
-1
0E
-23
-B
00
-E
-11
-9
-D
-9
16
0C
-9
06
-22
02
01
11
-C
-A
-A
-8
-1
-5
08
-3
02
13
08
09
-B
10
08
03
01
-5
-8
-3
-6
-1
00
00
00
05
07
-3
12
-7
-5
-1B
16
03
00
-B
0F
-B
-7
0F
-9
00
-7
01
02
13
04
03
-4
-7
06
-B
-C
-2
-A
-9
03
-7
-7
-3
-22
1E
-2
1F
-11
-3
00
00
-29
03
00
-22
1A
-8
08
08
1C
-D
-8
-17
20
-2
-1
-A
0F
-9
-2
13
-21
-3
-5
06
04
-1F
00
-12
1A
02
-8
-8
17
-1
06
10
-3
02
00
08
27
-C
-6
-10
18
00
01
0B
23
05
01
1A
-13
05
-B
07
0E
-6
03
-4
-5
08
-2
03
05
-C
-7
09
-C
00
00
-2
-C
1B
01
10
-4
-3
01
-B
-C
03
-B
04
03
0A
-6
04
-4
-1
09
-7
-3
01
-C
-4
00
-A
09
07
09
-9
-C
-6
01
-8
-8
-7
-4
02
-9
-9
-1
-8
-A
01
00
-6
06
-C
0D
-9
01
-2
07
-7
-A
-7
02
-C
-9
08
04
-9
-A
07
0B
0A
00
03
08
03
03
-D
00
-5
-1
-3
00
-8
-A
08
-C
0D
02
19
-4
-1
00
-C
-6
02
-B
-1
10
10
00
05
-4
-3
-3
-8
01
-9
03
-2
-B
-7
-D
04
00
-4
-7
09
-3
07
00
0F
16
09
01
-16
-1
-6
-4
-7
0D
00
-7
-8
-F
18
00
1B
-10
-A
-7
-B
-1A
-4
00
-16
1D
-7
-3
-A
06
-11
08
-14
09
-A
-D
-5
-2
-A
-1
06
-A
-9
01
-8
-B
01
04
-2
-6
-1
01
-F
-A
-5
-1
-C
02
-7
00
06
-A
00
01
-3
-8
0A
0A
-15
0B
06
-A
03
0B
-10
02
-B
0F
-3
-B
-16
05
00
02
-4
0B
03
-8
12
-8
01
-3
-8
04
-F
08
-10
0C
-F
03
00
0A
0A
-3
03
-1
-10
-8
-9
04
14
-9
1A
-A
01
03
09
-1
-2
-B
05
-1
05
-C
04
-E
0F
09
0B
-13
04
02
-5
-16
-5
06
-B
15
02
-2
0C
-1A
1A
01
0E
-17
03
-2
-9
-1D
04
06
-12
0C
05
-1
08
-4
0B
-2
01
-6
-3
02
-3
-8
-7
-5
-B
01
-D
-8
02
-5
0E
05
0C
-9
02
00
00
-5
-E
00
-F
0E
02
00
09
01
00
-9
0C
-4
04
-1
-B
00
-8
-5
09
-3
-2
00
07
-A
0D
02
15
09
04
-8
-4
-2
-9
-B
02
0C
-7
0B
-9
-E
0C
08
12
-C
-9
03
-14
-7
0A
-C
-3
16
04
01
-2
02
-8
-3
0C
00
-F
-A
-4
05
00
00
-1
07
07
09
-3
16
06
00
02
24
-2
-3
01
24
-3
-8
20
-10
0C
-A
0A
-11
18
-3
1E
-5
-10
-8
-B
-17
01
03
-14
13
09
00
04
-A
0A
06
0A
-C
05
00
-9
-D
05
-4
-9
0E
02
00
00
-4
21
-4
19
-10
-3
-8
-1
-5
09
-7
-13
12
-1
-4
-8
-1B
0D
-B
1C
-F
-8
-5
-4
-1C
00
0A
-1B
0D
-10
-9
0C
-D
07
00
09
-9
-F
-2
01
-11
00
-2
-D
08
07
-1
-9
-B
06
-6
-8
-1
-8
-8
-4
03
09
01
-C
03
-A
00
-6
05
-9
02
08
-3
-A
02
07
05
01
-6
03
-1
07
-6
02
-B
05
-4
0A
02
00
0A
-8
00
-F
-C
-1
0D
-5
06
02
-13
08
04
06
-D
-8
-2
00
-10
-1
-2
-5
08
04
09
00
-C
1C
01
13
-19
08
-2
-4
-13
-3
06
-B
18
-E
-6
-6
-8
16
01
13
-14
01
-8
-D
-D
02
04
-A
13
-3
00
-7
-12
11
02
0A
-4
07
-6
-8
-C
-9
02
-10
11
-F
-8
-4
-3
13
01
06
-2
-5
06
01
-10
01
01
-A
10
-F
-3
06
-16
0B
-2
0B
-C
-1
05
-5
-14
-A
-C
-14
07
-6
05
-2
-7
18
07
1A
-D
02
-2
-A
-C
-3
-B
-F
05
12
-5
-4
27
-1D
-9
-12
1A
02
-7
-F
28
-8
00
1B
-23
08
-2
08
00
02
01
-2
-3
-4
00
-9
06
03
06
07
02
-8
00
-8
07
-4
00
-5
00
-1
03
03
05
02
01
11
-A
-2
-1
-C
-4
11
05
17
05
-B
-B
-D
01
01
-4
05
12
-8
06
02
-8
0C
-2
11
-4
-F
-4
04
-4
-5
-3
-5
07
06
07
04
05
12
08
04
04
-5
-3
-6
-7
-7
-5
06
0A
-8
-9
-B
-1
0E
-1
0F
-4
00
-B
-1
0C
-3
06
0D
-8
05
-A
03
-B
11
06
16
-11
-5
01
-7
-5
06
-A
-6
0C
-7
00
-8
-7
13
-5
13
-11
-9
09
-F
-6
02
-4
-17
09
07
-1
08
-11
05
-3
11
-D
02
00
-11
-10
-6
-8
-F
03
0B
04
-2
-5
02
02
09
-5
05
-C
-B
00
-F
-8
-A
0E
-9
00
00
-6
09
06
05
-A
01
00
-4
-10
-D
-2
-7
09
-D
-8
-9
-6
15
03
00
-7
-8
-5
-A
-E
-F
-C
02
08
-9
-7
00
-4
15
03
0F
-F
-B
-B
-7
-13
05
-3
-11
0C
-4
06
-1
-1D
00
-9
0F
-1A
-6
0A
-17
-17
05
-6
-15
1F
08
-1
03
22
-8
00
-6
1F
-C
04
-C
16
00
00
14
-6
04
-A
08
00
00
00
-A
03
-B
-9
-7
07
-7
00
11
-E
0A
06
04
-1
08
05
-10
-D
01
04
-5
00
00
-3
-B
11
09
-8
-2
-1B
18
-6
14
-14
-1
-4
-15
-10
-D
02
-17
17
-3
-8
03
0D
0F
-B
01
06
00
05
00
04
05
-D
05
10
-4
-2
08
-B
00
-2
02
-C
-2
-2
-9
-7
04
-C
-B
05
0B
0A
08
-18
0A
-1
11
-10
-5
-8
-13
-16
-D
-6
-1C
18
05
01
00
05
-5
-8
-9
11
00
-6
-12
05
00
09
0F
-5
03
00
-9
17
00
05
05
0D
-9
02
00
0A
08
01
15
-12
00
-9
08
03
-5
-6
0D
-6
-2
09
-9
-B
-E
00
-9
0B
-4
02
-7
-20
16
0A
16
-E
02
01
-3
-14
-A
-9
-23
14
-8
-7
-1
-A
05
-2
00
-12
-C
05
02
-2
-9
07
00
09
-C
00
01
-7
10
05
07
-C
-5
06
01
-D
01
-1
-3
03
04
02
09
-1
08
-1
0B
03
-8
00
00
-6
-5
06
-3
04
03
-B
0A
-17
10
09
12
-A
-6
-8
-10
-B
-5
00
-18
1F
-5
07
07
05
0C
07
-11
-1
-9
-C
-D
00
-7
00
02
02
-5
02
-4
36
-2C
-B
-22
2C
-B
-A
-B
22
00
-7
31
-2A
11
06
00
22
-E
-A
-C
19
-F
-1
-5
1C
03
-9
1C
-9
2B
06
02
-1A
09
09
04
-16
-B
-8
-11
-20
09
-1
-1B
2A
00
07
04
04
-1
03
00
-6
-6
-9
-11
05
-10
01
05
06
-B
-6
-5
06
00
0A
-11
0E
03
01
-12
-5
-A
09
02
-2
10
-A
00
-1B
18
-1
06
-16
-8
-9
00
-19
-3
03
-2B
21
02
03
-C
-10
07
-3
0D
-B
-6
-2
-13
-14
-8
06
-11
14
00
04
06
-F
1F
-5
14
-7
-E
03
01
-7
-7
-D
-5
18
08
-2
02
02
0B
-3
0B
-6
-8
-D
-2
13
-2
08
09
03
02
-6
-7
-F
-9
-2
07
-3
02
00
00
-8
-7
-8
-1
04
0C
-6
09
-C
04
08
06
00
-A
02
-E
-A
-6
-5
00
0E
0A
-9
03
-4
00
-B
12
-3
-A
-E
-C
-6
-1
-B
02
0A
-9
01
00
0D
01
02
-4
07
-A
-6
-2
00
-5
-8
06
-1
07
-1
00
02
0D
08
05
-3
-7
01
-A
08
-9
-4
03
0C
-D
-B
-2
-B
0B
05
04
-F
02
01
-C
-D
-9
-9
-F
0F
04
05
-5
06
-4
04
-14
01
-5
02
-4
0F
04
-7
0B
-D
0E
03
-9
0B
-16
-A
-1B
02
01
-7
-7
0C
-9
07
-5
0A
17
-2
04
-B
-8
-3
06
02
-7
07
-1
-F
00
08
-7
15
23
02
01
06
-2
02
0D
02
-9
-4
-5
-5
01
-6
-9
-3
01
-9
03
04
00
00
-6
11
-3
-8
-E
0F
00
-B
13
00
-2
-8
03
13
-E
09
00
21
-1
-2
-11
19
-8
-6
10
-3
03
-1
06
07
-C
01
-3
01
-A
0A
-9
08
-7
-A
00
0C
-E
-4
03
05
0F
02
00
0C
-D
-6
-11
03
0A
05
-3
10
-1
04
04
10
-5
-8
01
18
00
-5
00
18
-8
-8
13
-F
03
04
-3
0B
-12
-9
06
0C
-1
-3
03
15
-9
-A
0F
-3
-3
08
-9
19
-12
-5
-18
0E
00
0A
00
1E
-1
01
0C
-19
08
-1
-5
00
-2
0B
-3
10
-F
-2
02
04
-8
-2
09
07
0E
-6
-1
-B
0F
03
05
-13
01
-9
-F
-7
03
-B
-3
-4
-B
-8
-1
14
00
-4
-8
07
-5
-3
03
13
-E
-7
14
-8
06
-4
-8
00
02
-A
0C
-4
-8
-B
-9
0B
-F
-3
05
-2
00
-8
03
-12
0F
03
12
-D
-6
03
05
-17
02
02
-12
0B
14
00
03
-9
-5
-B
01
-9
00
04
-13
-8
-6
09
-8
-7
-2
03
-A
02
03
-A
-1C
0D
0A
00
-4
00
-B
-3
00
-8
00
00
-B
0B
-1
-8
-1
05
-6
07
-3
14
0A
-5
06
-1
0E
00
08
06
0A
-6
01
01
02
-2
-A
08
-C
00
-D
0E
-1
01
06
05
-A
02
08
0C
02
-E
-8
09
-C
04
06
-E
02
-8
00
-9
07
06
02
-2
-5
01
-8
-B
-1
04
02
0F
-3
-1
05
-6
02
00
-2
-3
-A
-1
-4
-B
09
-4
-9
07
03
-2
-7
-4
09
-4
04
-1
-10
-C
-D
00
00
-8
-B
02
04
-5
00
0C
-E
-4
-A
10
-2
-A
02
0B
00
0C
06
-5
-1
-8
-A
02
03
02
06
09
-9
09
02
00
06
0B
11
-B
06
04
03
-17
16
03
15
-F
00
-7
01
-2
04
03
-14
08
-8
02
06
-3
00
-2
0D
07
-10
-B
04
09
-C
02
03
-1
-5
01
-8
0B
-4
-1
04
13
-7
-C
-7
06
-C
09
-2
00
-1
-3
08
0A
-7
-1
02
0F
00
02
03
-5
07
-A
02
00
-1
06
-7
-1
11
-9
0D
0B
-A
-C
00
00
-6
03
09
-2
-5
06
-A
-7
01
02
05
-E
-B
03
00
-A
-B
-1
-9
03
01
-4
-3
03
05
00
09
02
-5
-7
-F
0B
00
00
0B
-1
-A
04
0A
04
01
00
-11
04
0A
04
-1
08
-8
-1
01
02
06
-3
05
02
16
0A
0A
-2
-5
-9
02
-A
-B
08
00
0D
-9
-6
-B
03
08
04
16
0F
02
-8
04
0C
08
0C
00
-3
03
-4
09
10
-E
04
-B
12
-8
-9
-E
19
-2
07
19
-9
06
-6
02
-2
07
07
0B
06
00
03
0E
09
-9
-2
01
0D
19
04
04
0B
-17
07
-4
0B
02
-A
0C
1A
07
-7
10
-E
1E
00
-6
-1
06
05
11
-6
06
-8
-5
09
-F
06
02
-4
0E
-5
-6
15
-7
05
0A
06
-2
-8
00
13
-F
03
10
-12
0E
-6
03
2A
-17
09
-1B
20
-4
0B
00
35
00
-4
36
-29
03
06
-4
-11
18
05
0F
-11
03
-4
-11
-17
-7
-3
-9
17
-1
-5
-A
04
12
-2
0A
06
0A
-4
05
-6
05
-5
07
0C
0D
-1
07
-3
0C
-C
07
06
06
-3
-A
05
-F
-7
-7
06
01
-D
00
02
04
-A
04
04
01
03
02
13
-7
00
08
-4
00
-2
-B
0A
10
-4
-4
05
-9
-B
-5
05
-A
03
-5
08
03
-D
-E
0D
09
-7
04
0E
-8
01
-C
00
-6
-7
07
-C
-5
-6
-8
01
0C
07
0C
00
03
-B
-5
00
-2
-B
03
04
-A
-6
00
05
-7
01
-C
-C
06
-3
07
-6
02
-6
-8
00
-1
0C
04
-31
1E
01
30
-25
-9
-6
-3
-2F
-4
09
-26
27
-3
-6
01
-9
0F
00
16
-2
-7
-A
05
06
-2
06
03
0A
0F
-9
08
01
12
-B
05
06
-4
-3
-5
09
07
-A
06
-7
06
-B
07
-D
06
-8
1D
-15
05
-6
-1
-D
-9
07
-2
06
19
06
-1
-1A
16
05
21
-1A
-6
05
04
00
0A
-4
-6
11
16
-1
-7
-16
0A
01
0A
-3
-8
-9
-5
-B
-B
-2
-10
13
-1
05
07
09
-3
-B
05
-1
-8
-5
-3
0B
-6
00
01
-B
-1
00
06
14
-12
-C
-8
0D
08
09
-4
23
-7
-9
20
-E
0C
-9
00
0C
1A
-5
12
-3
05
-2
-6
0B
-B
0A
05
-9
-1
05
-5
-27
27
-A
2C
-1A
04
-9
-D
-1C
01
-4
-17
14
-5
-9
06
-D
07
08
03
-7
-C
01
-6
-2
05
01
03
11
03
-1
05
03
0F
-7
10
-C
-A
04
01
-7
-8
04
-A
03
-C
-8
-A
01
09
-8
05
-6
-3
-8
-11
-10
-C
-2
-C
0C
-6
06
-9
-6
0A
-7
01
01
00
-1
01
09
-7
06
03
00
09
00
08
-4
0A
-2
11
00
-2
-1
02
-3
03
06
07
03
-8
-1
-2
-A
19
-2
1C
-7
-1
-A
01
-1
05
-2
-9
09
19
03
-8
33
-41
06
-41
1B
-6
01
-6
32
02
-A
41
-32
03
-4
09
-23
1E
-3
15
-18
-9
-8
-F
-17
-3
05
-17
10
0A
06
-4
-4
01
-2
-4
07
-E
-8
04
04
-1
03
00
02
02
-3
00
11
0A
-7
-1
00
0A
-E
-5
03
-6
06
09
-4
12
-B
-8
00
0B
-B
07
-B
-5
08
-1
-6
07
-6
00
-1
09
09
00
-6
16
-2
0C
-8
-5
00
-9
-F
00
-5
-5
0F
-A
-8
-8
0A
-10
09
-16
15
07
06
-9
23
03
00
1B
-B
-7
07
00
19
0B
-1
04
00
-2
-5
-1
1E
-9
-4
11
-15
18
02
-9
0D
-8
03
0B
1D
-8
00
-4
0D
-6
06
0C
-17
00
03
07
-17
1C
02
12
-1D
-7
-9
04
-F
01
-C
-14
24
-1
-6
-1
00
10
00
00
00
-6
-2
00
-3
-D
-4
-3
11
00
07
-4
-12
1C
-5
0F
-13
01
-5
-8
-3
-D
07
-14
05
00
-3
04
-E
13
-2
08
-E
03
-5
01
-3
-1
01
-8
0B
-7
04
0B
01
02
04
02
-C
-11
-8
-C
-3
-3
-8
-9
02
06
09
03
-B
09
-3
00
04
-C
-8
-15
-2
-3
06
-4
05
-16
04
02
-A
13
-8
0E
-2
-11
00
02
-4
07
00
-9
10
0F
-3
01
16
-41
00
-36
09
-1
-2
-7
28
-6
-2
1B
-27
07
06
-9
-6
03
04
09
09
-12
-D
-1
-3
0A
07
08
05
05
08
03
11
-3
-B
-11
17
-B
01
-1
0A
-A
-8
08
-12
04
08
04
-4
0C
00
03
07
-3
-C
-9
-4
05
06
-5
02
-2
-D
06
-6
17
05
06
-4
03
05
06
-11
00
00
-13
0C
03
-2
03
-12
13
-3
1A
-7
-A
-E
-B
-12
00
07
-11
07
-E
08
-6
1F
-15
07
-1B
12
04
-7
07
26
07
03
1C
-1F
-A
07
-8
04
11
06
22
0A
05
0A
01
12
-C
-9
0A
-9
16
05
02
1A
03
00
00
15
00
03
-3
0A
-8
05
09
-6
-A
-7
-1
-E
10
04
16
-B
-6
-D
01
-16
-2
01
-15
18
-2
03
03
-B
10
-1
03
02
03
06
-7
06
-6
03
03
-1
-6
-7
06
-8
08
-1
12
07
06
00
-11
04
-A
02
-9
03
04
-8
06
-13
0D
-2
15
-1
-7
-2
-5
-9
-10
-4
-C
16
-5
-4
-1
-14
20
-A
16
-7
-4
-8
00
-19
-1
-7
-12
1E
0B
-9
-7
-7
00
-3
01
-1
-13
-7
-12
0B
05
00
05
0C
01
02
-5
-5
-5
-4
03
11
-C
-2
-C
04
-5
00
-4
-B
0B
-A
08
0E
-13
-5
-C
16
00
0A
0D
07
05
-3
10
-13
03
01
09
-1C
0A
09
1C
-D
-D
00
09
-12
04
04
-19
16
-E
04
09
00
03
00
0B
-5
00
08
03
-C
-8
08
05
03
-C
-5
00
-6
-1
06
10
03
-5
07
01
-7
02
-6
-8
-2
-3
06
0A
-B
18
00
19
-D
-8
02
-4
-E
08
02
-17
0A
04
00
-5
-7
14
00
17
-A
04
-9
-9
-C
-5
-A
-17
10
02
-C
08
15
-10
04
-4
0A
03
-1
-5
05
06
-8
0C
-7
06
-9
-3
20
00
-C
03
0A
05
-3
05
24
-3
05
1F
-22
02
02
06
03
-5
-3
07
0B
01
03
-17
11
00
01
0B
-7
09
07
03
05
0D
06
00
-5
02
-A
04
03
-5
04
04
-6
-D
00
08
07
0D
02
-3
07
-5
03
-14
-9
03
03
06
05
00
-8
07
0C
-A
09
09
13
00
01
01
0E
0A
-2
05
-4
00
-9
-B
02
07
-4
09
-2
-A
03
-9
-9
-E
03
00
07
-6
-A
08
18
-10
02
00
0E
-F
00
-5
16
-D
01
10
-5
-3
03
-5
15
-7
-8
-E
13
-A
00
01
15
-F
00
13
-1D
-3
-A
-7
-F
-3
-8
00
-A
07
-B
-F
00
00
-7
-9
06
06
06
07
-10
1F
00
27
-11
-8
-B
11
-1B
-8
-B
-E
12
-B
0A
-4
08
07
-A
12
10
00
06
02
-4
07
03
00
0B
-A
02
-2
09
08
08
07
08
-2
01
-E
-2
-9
-4
08
03
07
-4
-B
-4
-1
-8
1D
08
-8
-B
0E
04
-8
-D
0B
00
08
09
0A
-12
27
02
2A
-22
03
-A
02
-22
09
00
-25
13
0C
-8
-1
15
05
-1
0A
13
-4
02
01
03
-5
-2
07
-B
0A
02
00
37
-1E
-B
-1C
34
00
-A
00
36
00
03
39
-2C
08
-9
00
22
-C
-3
02
21
07
-1
-5
21
-6
01
16
-24
0C
-C
05
11
-B
-1
-4
-4
00
-6
-6
05
04
-3
01
-C
04
01
-5
00
07
-9
10
15
-1
00
-3
06
03
-C
0C
-C
-2
01
-B
-1
-1
08
08
01
-C
05
-C
00
-A
01
05
11
01
-1
09
01
-5
-8
-3
00
-8
03
-D
07
02
-9
-2
-C
-2
-8
05
01
-1
-5
-6
-A
-D
-9
00
00
01
02
07
-2
-10
-C
-A
16
-A
-7
-3
03
-12
-4
0E
14
04
02
12
-1B
-2
-C
06
03
-2
08
02
09
05
03
-3
02
-1
-6
-3
03
04
-8
0A
-20
0B
01
2A
-1E
-3
0A
00
-13
02
-5
-D
10
00
08
01
-C
-1
01
15
04
03
-5
02
0B
-1
-4
12
00
0A
01
-7
05
01
05
0B
04
-7
-8
01
08
04
-1
0D
01
-8
-A
01
00
04
-5
-5
07
-C
-B
-5
06
-5
03
10
00
03
-9
-A
-16
21
07
27
-12
-7
05
0E
-5
04
00
-19
18
04
-1
09
-38
46
-3
53
-3F
00
08
04
-3D
-9
-1
-2F
3E
07
00
01
00
0C
00
0A
09
03
-3
-3
08
-9
02
-2
-4
-C
-4
02
15
-B
-2
-5
11
00
-3
-2
14
01
06
12
-12
-7
-2
01
1D
-2
00
0A
25
-9
06
08
20
-B
09
16
-1B
0E
-C
01
0F
05
-6
-11
10
07
07
-10
14
-3
09
0F
-6
-4
02
07
-17
1E
0A
11
-16
-2
-6
02
-13
03
05
-8
10
04
-B
07
-B
0A
06
06
-D
-C
00
01
-F
-E
01
03
11
-10
-8
-5
-3
-6
06
03
-3
-C
02
-A
03
06
-A
0B
06
01
-A
-B
04
-1
-3
09
-6
02
06
01
-5
00
00
03
0D
-1
06
08
-8
-4
05
12
-9
-5
05
09
05
05
02
-4
03
-4
00
-5
-A
09
04
11
-13
07
-5
-4
-1A
-C
-4
-B
19
-1A
-1
-8
-3B
36
-2
27
-37
03
02
-3
-34
-A
06
-22
34
01
-4
05
-54
39
-4
38
-4D
05
-8
-5
-39
07
-8
-3A
45
-1
04
05
-1
-8
02
-11
07
-C
-6
-B
-6
05
-6
02
-B
-4
03
07
0F
-8
05
-9
06
-7
-5
-10
17
-B
-8
17
-5
-1
-1
07
-D
0D
0A
-1
-6
-D
-4
06
-1
03
-6
05
-4
-8
00
-9
-23
2E
01
37
-2B
09
0A
0E
-12
-A
04
-14
29
-9
00
05
1F
-26
02
-1E
0A
-4
-8
-5
10
02
01
19
-12
-6
02
04
1A
-19
08
-29
07
-3
03
-6
1B
-1
04
23
-15
-11
-7
01
11
01
01
14
0D
03
-2
0B
0C
-B
07
10
-15
23
02
01
-4
1C
-1
14
-17
-1
0B
-B
-A
-8
08
-E
18
04
-8
00
-2
0B
-A
-6
-E
-3
04
-6
00
03
-A
-B
10
-A
0A
02
-3
-5
06
-7
05
-4
-B
-7
-4
01
-8
-7
00
-12
-B
-4
-D
0E
07
0B
02
-4
-4
-2
00
-9
07
00
0E
-B
05
0A
03
-3
00
06
-C
00
01
07
-3
-D
-7
01
03
-F
-B
03
00
0A
02
0F
00
-4
06
-2
00
-E
01
03
0D
0A
04
07
-14
1C
-6
27
-1F
-7
02
-D
-1D
01
-C
-A
18
00
07
-2
-2A
12
-4
08
-2E
03
00
0A
-19
05
-6
-F
16
-2
0B
-4
09
-1C
08
-12
01
-6
00
05
-2
06
07
-5
-B
02
0B
-5
-16
-7
01
09
-14
03
-7
-9
-14
07
04
-6
15
-10
-8
04
-18
04
07
03
-17
-9
-4
-3
-E
-2
08
-F
0C
-4
07
-7
-6
-14
01
-10
-1
03
-1
01
-1
05
01
09
-12
01
-9
01
-E
-4
07
03
-1
-6
06
13
00
-4
00
-3
-9
17
03
0C
-13
00
-2
00
-F
07
01
-11
-9
-A
05
02
02
-3
-A
05
0E
-15
-6
-18
18
-3
-7
04
29
08
03
15
-23
-2
0C
-A
27
-A
04
-5
23
-1
-9
-4
26
01
09
2E
-1F
25
04
07
05
09
08
19
00
-3
02
-C
0A
-10
-1
03
0D
06
-5
05
-15
-8
-A
01
-8
00
-B
-B
-B
00
-8
-C
10
01
-B
03
-F
06
05
0F
-13
02
-3
-1
-5
-3
-2
-C
14
02
-4
-1
-D
0A
-6
07
-15
-7
-7
02
-5
-A
04
-E
00
-3
00
00
-3
04
00
04
-D
-B
03
05
-10
-D
07
-F
0D
-F
02
-7
05
-3
07
08
-F
01
-4
-10
03
-B
00
06
09
-1
-3
-A
0E
-3
00
07
0B
-D
00
-7
03
00
-4
01
-A
07
-5
03
00
-11
-7
-8
0B
-9
00
09
08
-7
06
14
-15
02
00
04
09
-24
-9
-24
-5
-2
-3
0C
0E
08
02
0B
-F
-6
01
05
-D
1E
-5
1E
-18
-5
03
00
-1
05
01
-C
09
-3
-A
0A
08
-6
00
0B
0A
08
09
-9
07
02
02
-5
08
00
-2
08
00
-5
06
00
0C
-3
08
-9
02
-8
-7
0E
-9
-2
06
00
0E
-3
00
00
00
0A
-3
-5
0B
03
08
05
-15
13
-4
-1
-C
0D
05
1C
-14
04
-3
-6
-F
-F
-2
00
16
-7
02
03
02
-11
09
-17
19
-7
01
-F
0F
00
-C
18
-12
03
02
-3
2A
-E
-D
09
28
-A
-6
03
25
-8
04
1C
-17
0B
07
09
11
-A
-8
-5
16
-2
-5
-4
1C
03
03
15
-7
-8
-4
-C
-1B
0E
-2
1A
-18
-8
-2
00
-13
-B
03
-1A
0A
10
-A
00
-2
13
05
10
02
-1
-6
-7
01
-5
-C
-5
10
-6
-8
03
0B
-2
06
0C
04
-8
02
03
08
09
02
0E
00
00
07
0A
01
0A
00
02
-12
-1
-A
-C
-10
-F
02
-B
16
-C
03
-6
-10
0D
00
1C
-B
03
00
-6
-E
-9
00
-B
12
-3
-1
04
-6
08
-5
13
04
-5
-5
-10
-7
04
00
-6
0C
0A
-B
04
-18
0E
-7
0B
-1B
-5
00
06
-5
-D
-3
-15
0B
04
-A
-8
-14
0C
-2
1C
-20
00
-3
-8
-5
-1
-9
-7
00
22
08
02
-C
09
05
16
-13
00
07
-6
-7
-9
02
-10
10
11
-5
03
-1
-B
-B
-11
00
-B
-6
00
04
-4
-A
04
03
-1
08
-C
-B
0D
-4
09
-7
00
-6
-D
04
-4
03
01
-4
0C
00
-4
00
0C
07
17
0C
-9
-3
-4
13
-5
05
0D
-C
23
03
-B
-17
09
-8
18
-2
-3
-7
-5
-A
-B
00
-C
07
09
01
08
27
-13
-6
-17
20
0A
-A
-F
28
-1
00
17
-14
09
-7
03
16
05
-B
05
19
-2
-5
-6
19
04
01
1C
-1C
0B
-B
-9
08
0E
-2
06
00
-4
-4
-8
-1
00
-5
07
-6
-1
05
07
-15
13
-1
1A
-6
-10
-6
-9
-16
-E
06
-11
10
0D
05
05
04
07
-2
08
-F
01
-2
00
-A
07
04
-A
13
-7
03
-3
02
0B
-5
03
03
00
-4
-C
08
01
-4
-5
-A
00
-A
00
-10
08
05
06
-11
-D
00
-5
-C
-C
03
-3
06
-A
07
02
-15
18
-8
28
-A
03
00
08
-9
-3
-4
-1
0F
09
03
-5
11
01
-3
08
0D
-A
-7
-A
10
02
00
14
-6
0E
03
-1
0D
-12
04
-D
14
-9
-5
-E
09
-F
08
15
-11
0E
03
-6
0D
-9
-8
-7
15
00
07
-5
0D
09
-4
14
-15
23
-6
04
00
0A
-1
-1
03
-8
00
-B
-3
00
-3
-B
09
12
00
07
07
07
-A
07
07
-2
0A
-D
00
-B
08
03
00
-3
-B
-A
-7
-B
00
-F
-D
-5
04
0D
0B
-10
01
01
-3
00
05
03
-9
02
-2
00
-2
07
09
-8
06
-E
-8
-2
05
0F
-8
05
-A
03
-B
01
0A
-D
-3
02
07
-6
-7
04
-2
-5
-C
00
1F
-25
08
-22
1D
06
00
-E
18
-A
07
25
-24
02
-6
-1
0E
16
00
15
-1
04
-8
-D
05
00
05
03
-8
0B
-1
-4
01
0D
-3
04
-2
-5
04
-15
-8
-C
-7
05
01
-3
-2
-5
-6
02
08
-7
05
-7
01
-B
-8
01
-2
02
0A
-1
-1
01
-9
0D
-5
0C
-D
03
-A
-13
-6
04
05
-5
06
-7
-7
05
-7
-6
-1
01
00
-1
06
-7
0C
-5
05
0D
06
-5
02
-3
-2
05
-2
05
-10
-2
00
-1
00
-B
-2
06
12
-12
04
07
0B
06
-B
07
13
-9
-4
06
0B
-10
-6
0A
-1
05
-6
02
15
08
-9
02
16
01
-3
07
12
-4
-8
0A
-10
05
09
06
14
-26
-6
-2B
22
02
09
0B
1A
-9
00
23
-20
1C
02
09
-1D
04
01
06
-21
-8
02
-6
-1E
-1
0A
-24
21
1B
06
-6
18
0D
00
08
1A
-2
00
-5
11
00
-2
0C
00
-A
08
00
13
04
01
06
05
03
-6
01
19
-9
06
10
-7
08
09
01
0F
-B
02
-12
09
-A
07
06
1C
-A
-4
12
-C
09
07
0A
00
-A
05
-14
05
-1
02
05
03
-2
09
01
-1
-D
04
-8
24
-10
00
-F
11
01
-D
-E
0E
-5
-7
13
-18
-2
-2
-2
0B
-6
05
-6
16
-4
-6
06
16
-5
06
0E
-1A
01
-1
-A
-5
06
09
01
0C
-5
-2
05
02
-4
07
01
03
03
00
01
0C
-12
04
-F
14
02
02
-E
10
05
00
18
-8
03
05
-5
1F
-16
00
-1E
1E
-C
01
-11
1E
00
06
22
-1C
16
08
-6
-3
03
08
06
-C
04
-E
-10
-A
01
06
04
02
03
-B
07
06
02
-8
10
05
07
07
08
10
-4
-3
00
08
09
-C
09
-9
-1
03
05
-7
-1
-9
-F
01
-1
08
06
-1
-B
-6
07
17
-D
-5
-14
1E
-F
-1
-8
0F
04
-8
15
-12
1E
-9
-1
07
08
-2
03
0B
00
02
0A
00
01
-5
-8
05
-5
-9
-B
0F
-2D
-2
-2F
0D
-4
09
-C
18
04
0A
14
-14
-1
0B
03
-5
1F
05
17
-13
-2
00
00
-18
-5
-6
-B
1C
-3
-3
-B
-1
0A
-6
13
00
-7
-1
03
-5
00
09
-8
07
0A
04
08
-1
-A
07
00
00
08
-A
-8
05
-E
-2
11
-B
03
02
-7
-16
0B
-5
18
-7
01
02
-13
-14
04
04
-1C
17
-1
-B
-7
18
-11
02
-21
12
-3
-6
-A
0E
06
01
1E
-D
-2
00
-F
00
00
-6
-5
-1
-F
-6
04
0B
03
07
-1
-4
10
00
-9
0C
-3
-B
-7
12
-3
-A
-7
08
-A
03
-6
00
0C
02
01
00
12
-5
0B
-6
-9
07
-11
08
00
-F
09
-1
-1
0A
07
09
09
00
06
0B
-8
06
0E
02
-8
09
00
-F
06
04
-2
04
03
-3
16
00
-B
-8
04
-3
-D
02
-1
06
-5
00
03
09
-4
00
-4
0F
-3
-6
-3
12
-2
0A
00
-4
-4
-9
04
-3
05
05
02
-5
-8
-C
-2
05
-2
-7
01
0B
00
-7
05
00
07
00
09
03
03
-A
-8
09
-F
01
0E
-4
03
01
07
-9
00
04
10
00
05
05
0A
-A
02
-4
-A
12
00
-C
05
0D
00
04
02
06
02
08
00
-5
-F
05
08
-5
-3
03
-1
02
-8
02
-6
10
04
0A
-2
0B
02
00
0D
-19
-7
02
07
22
-13
-3
-F
13
03
03
-D
0F
-1
-4
11
-1A
00
-1
00
-5
09
06
1F
-8
01
05
-9
-5
0A
01
-B
0A
10
-5
03
-3
-5
-8
-B
-5
05
-3
00
00
02
-B
07
08
-1
-B
0A
02
-14
0B
-9
0D
-2
-3
-3
15
-6
00
0F
-8
06
-1
-8
40
-3C
00
-30
35
03
-9
-6
46
08
04
35
-2A
17
-6
-6
07
-16
-8
-2
-1
-3
07
-1
0E
-4
04
05
-5
-2
-8
07
1B
-2D
-6
-13
11
-7
0A
02
28
-6
09
26
-14
14
-8
07
-13
15
-2
17
-F
01
0A
-E
-8
00
-1
-B
08
07
-B
-A
-8
11
05
01
-1
-6
-7
00
03
-3
-2
-4
08
09
-1
-1
0A
-A
-6
-11
11
-9
-5
-D
15
-8
02
18
-14
19
-9
01
03
-3
03
-1
-5
00
00
-8
0C
-E
00
00
00
05
-1
04
08
03
-2
02
00
-7
07
-9
0F
-8
-1
0A
-9
-D
-C
09
08
07
04
00
0B
-6
-1
-5
05
-5
07
05
-2
-B
-B
01
0E
-B
-7
-8
12
-A
-8
-7
15
-6
-4
22
-11
-A
-A
08
00
02
-5
06
0B
00
07
08
06
-A
-9
00
-5
-5
01
01
06
-4
06
0A
-5
-A
-2
-9
10
00
0A
13
-10
16
03
04
09
-E
00
00
-6
-A
-5
-8
0B
-6
-7
18
02
04
02
00
-7
14
-A
10
-17
-8
0A
-A
00
-4
-5
-2
0D
18
-6
0A
00
00
-1
04
05
-A
-7
-3
-1
-6
-A
0B
-A
-4
03
-A
02
0B
00
05
0B
00
-1
-F
0C
02
01
0D
04
13
06
09
21
-6
-9
-B
25
-6
0A
-D
26
00
05
1D
-1B
2D
03
01
-9
11
-3
1F
-5
-5
-9
-1
01
-6
07
05
03
06
-8
-3
18
-1C
-6
-1A
11
-7
0A
-8
27
-10
05
1C
-25
0C
07
03
-4
1B
-7
2F
-14
-F
-6
-9
-17
-9
01
-12
1C
-8
-5
04
0F
0A
-7
-6
02
01
-4
02
12
03
03
01
-1
06
00
00
-1E
1B
00
20
-15
-4
-9
-6
02
-3
-A
-3
0D
13
-2
-7
01
09
-3
09
-A
-7
01
-7
-6
-2
-2
08
-6
04
-9
-8
06
0C
-4
04
05
-6
06
-3
00
05
06
-5
0C
06
02
00
-9
07
-4
0B
-1
-7
-B
-5
-8
-1
-5
06
0C
-D
01
00
06
-5
-C
-C
-2
-F
02
-4
0A
03
-5
0F
-8
-5
-6
02
05
00
-2
01
-7
-2
04
-1
00
-5
-B
-C
11
-5
07
09
-5
1A
07
14
-27
05
05
-A
-6
04
-7
00
13
2A
-3
0A
15
-1D
-6
-1E
-9
-3
-5
03
1E
-E
0A
1D
-C
23
-3
-2
-10
18
01
0D
-10
-A
-B
05
-14
-9
02
-4
03
06
07
02
-6
09
04
14
-D
-3
02
-8
-14
-4
01
-9
0D
00
-6
05
06
-6
07
0E
-8
-1
-2
-B
12
00
-B
05
-8
07
-4
0A
-C
0A
05
18
-E
08
-3
-1
-6
-9
07
08
00
11
00
-1
-1B
12
06
11
-12
-4
-5
04
-11
-7
-A
-5
1B
09
-5
-6
0A
-6
-2
09
-7
-5
-2
-E
00
-6
06
10
00
0B
04
-7
-1E
20
01
1F
-7
-6
0A
-8
-18
00
06
-15
1A
15
-5
-7
0F
-E
-C
-A
09
-A
05
-8
1A
05
08
07
-B
04
-1
07
-28
23
-1
24
-2A
0A
-A
-B
-21
-2
07
-22
14
0E
00
04
09
0C
05
00
-9
03
-5
00
-5
01
-B
07
0E
-1
-2
03
-7
0C
03
02
-7
-8
-8
-14
-13
-C
08
-D
06
-2
-9
01
-6
08
01
0C
04
03
-B
-1
-4
-F
-8
-B
04
-6
-4
04
-2
-8
-4
0C
-4
01
02
05
0E
02
01
14
-C
00
-2
00
03
-A
-3
06
0C
-9
07
-3
0E
-2
07
0A
-A
-C
00
00
02
00
00
-1
-4
-8
-C
-9
0B
02
-8
0E
00
19
08
01
-9
-7
06
00
-8
03
09
-2
06
-2
-4
04
-2
25
-7
07
02
0F
-A
03
00
06
07
-B
02
-B
06
-7
04
-5
-4
02
08
01
-3
02
-E
08
05
-2
-A
02
-9
-8
09
-D
-1
-2
00
02
00
-7
0B
-6
-3
-8
02
-2
-4
04
-4
07
-2
-4
-1E
29
0A
30
-13
05
-2
-2
-1E
-A
00
-15
23
07
-4
0A
-2
14
-2
0E
-9
-5
04
-8
02
-6
-9
-F
0E
02
-5
0A
-15
15
00
1A
-11
09
-B
0E
00
-B
05
02
0F
-7
02
-2
0B
-3
00
16
16
00
-2
-9
08
00
-3
04
-C
17
-8
-5
03
14
01
14
-3
-A
05
-8
-F
-2
-9
-A
06
00
-B
00
-E
07
-4
13
-19
-3
05
-3
-17
-4
01
-D
14
09
-C
-7
-4
04
-B
07
03
-1
06
-12
02
-5
03
-8
03
00
-C
-9
-1
02
-5
06
-1
-1
00
02
-9
-4
-2
06
07
-F
-9
06
-4
0C
00
05
-A
-5
-C
-1
-9
0A
-A
-10
09
-6
04
0B
-3
-B
07
04
06
01
-6
-2
03
-5
-B
0B
-7
-2
-A
00
0F
-E
-5
-20
13
-D
-3
01
1D
-8
-5
21
-19
0B
-1
00
-13
05
-9
15
-14
-1
-B
-1
-2
-6
01
-3
09
18
-1
-9
-E
00
07
01
-11
05
01
-4
-8
-A
-2
04
0D
19
08
-3
-1A
08
-8
0A
-17
-1
-A
-4
-1
-3
03
-F
0C
-E
00
-9
-1
01
01
10
00
-A
02
04
00
00
04
-5
03
-9
-7
-A
-7
0A
-9
-2
-3
08
-2
06
08
-5
-7
-9
09
07
03
-A
-26
39
-5
29
-19
-A
-7
00
-1C
-E
-2
-1F
20
03
-6
09
-14
00
08
-5
-14
02
06
06
-1
-10
-8
-E
0B
00
-6
09
-5
08
04
02
00
09
-A
10
-3
00
00
01
06
-2
-9
01
1D
-11
-8
-2
1C
-A
01
00
16
-5
0E
09
-C
17
01
-B
02
02
00
-5
0A
01
-B
-F
-1
00
-4
00
-8
00
-1
07
-13
0B
01
0F
-14
02
-3
07
-1B
-6
-8
-17
12
00
-A
-6
07
0F
-C
-4
0A
-1
06
00
02
-9
-1
02
08
-6
-3
-3
-5
05
-2
09
-2
-8
00
-C
0A
-3
-9
0F
01
-2
-7
-3
04
05
-6
14
-E
-4
-1
-7
-3
-B
07
-E
12
-E
-4
-C
0D
0C
03
-4
00
-9
-A
-4
-1
-F
08
07
08
02
00
02
30
-2C
04
-26
24
05
-4
-3
2C
-6
-2
29
-25
02
00
01
11
-13
07
01
08
06
-A
-2
10
-1
09
13
-1A
11
-4
07
00
28
01
1D
-F
03
-5
05
-F
-A
00
-10
13
0B
-7
05
14
-6
-1
0A
1F
-4
07
03
12
-1
05
21
-18
13
-2
-2
0C
-2
-3
-A
-1
-4
-3
06
02
-E
-8
02
00
-5
-9
-1
0A
08
00
09
-1
-4
-5
02
-1
02
-2
-5
07
-9
-9
03
0A
18
08
0F
00
-4
-2
-5
01
-B
-4
14
-B
04
-8
04
0D
-2
-C
0B
15
03
-A
-5
07
05
08
08
-E
-4
-5
03
11
-4
-8
04
-4
-7
06
09
02
-C
-6
05
-B
-7
08
01
0F
-9
09
-2
16
-8
-3
-14
-1
-A
05
0D
-E
-7
00
09
0F
-10
-8
-1F
11
-2
-1
-C
0F
00
-A
1A
-9
00
-2
-A
-11
06
-5
13
-7
05
00
0A
-11
-1
-9
-11
08
00
04
01
0C
03
-C
-8
06
-6
-C
-F
00
-5
-5
03
06
-4
-3
-B
11
-2
00
00
04
01
-B
00
06
04
00
03
02
05
-C
-5
-7
0D
02
0A
06
00
-B
-1
-C
-8
00
-B
10
-2
-C
08
-4
10
00
0C
-8
-4
00
01
04
-D
01
-9
09
01
-5
07
0B
-F
-5
03
0C
00
09
-B
08
-5
04
06
-8
-D
02
09
03
-29
07
-8
05
08
00
-3
11
03
00
0E
-C
10
-4
09
-11
1A
03
29
-7
-3
-5
-C
-9
-2
0A
-10
11
16
-8
00
-5
04
01
06
-1
-11
-1
01
0B
00
-5
04
04
0C
-4
05
10
-3
03
-2
0C
01
-A
-1
0C
-3
07
06
-15
-8
-9
03
1B
01
07
16
08
-5
-3
0B
13
-1
-9
06
-14
13
-2
00
0A
14
0A
31
-6
07
-3
0D
0C
04
03
09
-A
19
02
-2
14
-E
-1
-9
1F
-F
01
01
24
04
-7
13
-13
09
02
-9
1F
-3
-7
00
11
-A
-8
01
14
01
06
1E
-18
16
01
00
09
-D
00
-8
0E
0A
02
-15
07
-3
-1
08
-9
00
-2
04
-3
-16
02
-15
-5
02
09
-B
-1
-1
03
0C
-D
-C
-1
03
-12
0B
-3
16
-F
-8
00
03
-13
05
-C
-C
0D
0A
-3
0A
08
-7
04
04
-5
01
-8
03
-6
-1
00
-8
02
-C
02
-B
09
09
04
03
-4
-6
-4
11
0B
-6
-1
08
07
-4
-C
08
-9
-4
06
00
-A
-6
-C
-9
06
00
02
-6
04
-A
-3
01
00
-2
01
0B
-5
-7
-1
-3
-8
-B
-6
-B
08
-D
04
05
-13
-1
06
10
-B
-4
04
0C
02
-9
00
-B
01
-14
-A
07
-13
19
07
1E
-21
08
-E
-9
-1D
-7
-9
-22
1A
0D
-5
0A
-15
01
00
28
-9
-3
08
02
-6
08
-A
-C
16
20
-5
04
10
-11
-A
00
-6
-B
-4
08
07
-A
-1
00
00
-2
08
-1
00
-8
-8
05
-8
00
-3
-A
-3
-2
00
-1
04
-A
03
04
21
-10
00
-3
10
-C
-5
-2
0F
-5
-5
15
-13
0D
08
00
-1A
35
05
45
-1B
-11
00
-4
-1D
-8
01
-28
31
1A
03
-7
0B
-A
05
06
02
03
-1
-1
0C
-C
07
0B
00
-3
-1
-8
-11
-8
-1
02
-13
-B
06
00
-D
02
00
-8
16
00
-9
-6
07
00
09
08
0D
-7
-8
-13
10
-6
00
12
-9
05
09
-3
0A
01
-9
0C
02
-7
05
04
0B
01
01
00
-8
-10
08
-5
00
-4
08
08
00
00
04
-5
-4
06
-4
-3
08
17
-6
09
-B
-7
-A
-4
-C
08
06
-3
-8
03
06
09
09
-6
-A
02
-6
00
00
0A
-B
-4
-3
10
-2
-5
-3
-5
0F
-5
04
01
-A
-4
05
05
-5
-8
-D
07
06
-10
-C
08
08
-8
01
06
0B
-1D
07
-11
0B
-7
04
01
17
-2
04
08
-19
04
01
00
01
05
-7
-8
-5
03
00
-D
07
00
-4
-7
03
-9
04
-A
-8
1E
07
11
-E
01
03
-5
-10
-4
0B
-D
18
2C
09
01
-1F
-2
01
1C
-27
-8
04
03
-10
-4
-6
-19
0C
17
-A
-4
-1
02
00
06
-F
-3
-3
03
0A
-E
-1
-4
06
03
-4
03
03
-1
06
07
00
05
-3
-8
-3
04
01
07
-6
-10
07
-1
06
01
-5
09
0F
-2
-E
00
0D
02
-7
01
-D
05
-4
-7
1E
0B
00
0F
1D
-A
00
-B
1C
-8
-4
15
-1
1E
-2
-5
04
-F
-B
-11
07
05
00
0E
-2
-7
-6
02
03
-11
-1
-4
06
04
06
06
06
04
01
07
-6
05
04
-5
-3
05
-1
-B
09
-7
-4
0E
14
-9
03
-7
19
04
-6
0E
-12
02
-6
-2
-D
03
08
-4
02
05
-9
00
05
-F
-8
-7
09
01
07
0A
-6
-2
02
08
-14
-A
-D
-4
-6
05
00
-6
07
0E
09
05
-B
-3
06
07
00
08
-B
-E
08
-B
-2
-6
02
-7
-C
-3
-5
-5
09
-D
05
06
-5
-4
05
05
-2
0A
03
-C
02
0A
00
05
07
0A
-C
-2
04
07
-F
-2
-7
-8
0D
00
07
-A
13
-2
-4
04
14
-1
04
-3
01
00
05
11
-12
0A
-5
02
10
-4
07
-1
07
-7
-A
-D
03
-4
-2
0A
00
-6
01
03
-20
26
-A
37
-1C
08
-6
12
-1F
-6
0A
-D
26
1E
-3
07
03
0F
02
25
-9
06
00
-3
12
-C
00
0C
-16
29
-6
07
00
14
09
16
-3
06
01
-E
-C
01
05
-A
09
06
00
-1
0C
-11
-3
-E
-3
-9
-7
-12
04
-A
-9
0F
03
-F
00
08
10
-5
06
03
14
04
-B
-2
09
-7
03
09
-F
0A
-1
03
-A
2C
07
2B
-7
08
05
0E
-D
05
00
-4
00
1F
07
09
15
-16
-1
-E
17
-4
07
02
1B
-2
09
1C
-C
03
-9
-6
0C
-5
-4
-9
09
-A
05
00
0B
01
00
15
-D
-3
-6
-4
-E
15
04
2D
-1
-C
00
0A
-6
02
-7
-6
17
-D
-8
-8
-F
09
09
02
-12
04
02
-2
00
02
04
-3
07
-6
00
-7
-F
15
-8
1C
-C
-7
-1
-6
-C
-5
-7
-2
0F
0C
-9
-9
-4
09
03
01
-B
-5
-A
-C
-2
-7
-B
-5
0E
04
-7
00
-9
06
05
0D
00
08
07
-5
07
-2
-7
05
-7
06
-3
03
-3
03
-1
0D
-1
-1
-8
-E
-4
01
07
-9
12
-A
05
-4
12
0D
-8
0C
01
-D
01
04
02
-6
09
-2
03
03
07
06
0E
-D
-2
-9
20
-7
03
-D
14
-A
-8
17
-E
02
-A
-1
-B
2C
-A
26
-10
07
-7
-6
-B
-B
-C
-17
18
22
0A
-6
00
0C
03
11
11
-4
01
-3
19
-5
-6
04
-14
19
00
09
00
19
-B
1D
06
03
00
-11
04
-C
02
-9
12
20
-8
-6
10
03
-8
-5
04
-2
-9
-8
00
00
-2
07
-1
-6
01
05
-2
0C
07
11
0D
-6
04
05
-6
-F
-7
08
04
15
-5
-2
-E
35
0A
31
-19
04
03
04
-20
-E
-3
-23
23
07
-8
00
0C
04
-A
-3
0A
03
00
-11
0C
04
00
13
-12
10
05
-6
08
0E
05
08
00
02
00
02
10
-2
-C
0B
-7
06
-2
08
-F
12
-2
1B
-10
-2
-B
01
00
03
-3
-9
13
-1E
04
-4
-9
-7
04
00
-8
01
-9
-B
04
-3
-9
-5
0B
-5
-6
03
04
0D
-3
11
00
-4
06
01
02
03
-4
06
09
0B
04
09
01
-7
-8
-6
-5
-1
-6
-2
09
09
-8
05
07
04
-8
01
-1
-2
-A
0C
0A
-2
-9
-7
0D
-4
03
11
-4
07
-7
00
-2
12
-6
05
00
-7
-B
-7
-8
-4
-2
-D
13
-A
09
04
0A
12
-B
0B
02
-9
04
02
-4
02
05
0C
-7
02
-6
01
0C
-C
06
-B
13
0A
-A
-3
09
-9
06
10
-B
05
-1
08
-4
09
-9
10
-14
-4
-B
-4
-10
-8
-5
-14
08
02
0B
05
-4
-1D
-1
-D
04
08
04
-5
-3
01
06
01
0A
16
00
02
00
03
-5
01
-C
02
00
-1
01
-1
-C
-8
04
00
-1
09
02
01
02
07
-8
04
-4
-3
0D
-8
-B
02
-3
-1
-8
07
03
0E
-8
09
04
-A
-2
00
-D
-C
-C
-10
0A
10
-2
-5
-14
08
-A
01
-1A
-7
00
-3
-1D
-F
-4
-17
22
-3
-5
08
-B
0E
-9
0F
-2
-A
-A
-5
00
-D
-9
-14
10
-1
-9
-8
-4
11
04
09
-3
02
-5
-3
-B
04
00
-2
12
0D
-C
-6
05
0E
-6
0A
-7
-8
05
-4
-B
-6
-9
-B
01
-1D
0C
09
-C
0A
08
10
-F
-6
04
01
09
07
08
03
-2
04
-1
0A
-10
12
01
14
01
-2
02
03
-A
-E
-3
-8
18
08
00
-7
05
05
01
-3
-B
06
-A
-2
-3
0A
-A
08
-3
-7
05
03
-9
01
-B
-4
02
01
05
-12
0B
-9
-3
-9
0B
02
04
07
-B
03
-1
0D
-C
-3
-5
-A
-5
-3
-C
-2
-3
-9
00
-3
-3
22
-5
28
-C
-F
00
-9
-B
00
00
-F
0D
07
-7
03
26
-1B
-5
-19
2B
-9
01
-5
25
-9
02
1D
-19
1A
02
08
-12
-19
-7
-E
-C
-6
-A
02
01
-1
05
-14
19
18
06
0A
-4
-13
09
-12
-7
07
0A
09
-F
02
07
-3
0D
20
08
08
10
-8
03
-10
03
00
00
-9
-1
-5
-C
09
-2
-3
-4
00
06
02
-6
0B
08
07
-3
01
-1
-A
-1
-1
05
-7
04
03
15
-10
02
-1
13
03
-A
02
07
-B
-3
15
-E
-3
07
09
-1E
09
-9
06
-1A
-C
02
00
-16
02
07
-17
1D
-7
06
-3
15
-B
-5
-7
21
-2
-3
07
0E
-3
01
15
-7
01
09
-7
0B
0C
01
02
00
06
01
-7
-3
-6
-E
-4
-4
-A
02
-3
18
-13
-2
-15
22
03
-5
-A
13
08
01
20
-E
-B
04
02
0C
0D
00
0F
-2
01
-6
-12
01
03
01
0C
-1
-6
00
-1
16
-14
-6
-10
10
-8
-A
-2
13
-9
08
0D
-10
09
00
-A
06
00
06
07
-8
01
00
-11
-6
-D
04
0A
-8
-6
-C
-3
-3
-4
01
-5
03
-1
-4
05
-3
00
09
0B
-3
-9
-D
-B
02
00
-4
09
02
03
-5
04
-1
05
05
08
04
-7
-B
03
-4
-7
02
01
00
-3
-6
00
-9
-2
-1
-4
-1
10
08
00
0C
-A
09
-11
0D
-3
-C
00
02
-B
00
15
-A
-D
08
09
-19
21
-1
21
-17
-A
-6
-4
-19
00
-2
-D
1A
-14
00
01
0E
-5
08
-3
01
-B
01
-9
10
-1
07
0E
-B
03
-5
08
10
10
-9
14
-3
-4
03
05
06
-8
03
0D
0A
-5
03
-C
0A
01
02
06
05
-7
-7
-8
-1
04
-4
-3
03
0A
06
-1
0F
06
-3
0E
09
09
-6
00
00
-4
-2
-2
-9
02
-7
09
-4
04
-2
0D
-8
-8
07
-11
-1
03
-1
00
05
-D
00
-C
03
-4
-5
0E
02
02
-3
-B
-3
-6
00
10
-2
0D
-1
-2
05
-8
00
05
15
00
02
08
-A
-8
-6
09
11
0B
03
0B
-13
15
-3
23
-2B
-C
05
-5
-B
-2
-E
-A
1B
-9
-4
00
16
-11
-5
-B
05
-D
-D
04
17
05
0A
15
-F
0A
-C
-1
0A
0C
05
0E
03
-D
-B
-2
00
-3
00
00
00
-2
-9
-A
0C
0A
-B
-7
09
-4
00
00
-5
00
-6
03
00
06
07
-9
07
00
-5
04
09
04
-3
-1
-8
-7
05
-9
00
07
00
-B
0D
-8
-8
00
11
-7
-6
-2
0C
-8
-3
00
00
0B
05
-7
00
0E
-2
05
-6
00
03
09
02
-A
-B
0E
-8
-6
-A
-1
15
-F
00
-1
07
05
02
00
10
-7
04
1D
-16
-7
00
-1
-C
1E
-8
28
-5
-A
-1
-C
-8
-4
-1
-5
05
05
-6
00
1C
-E
-5
-9
16
07
-6
01
1D
-1
-3
1C
-12
09
0B
04
12
-1D
-7
-17
08
-A
00
-2
1D
00
08
13
-13
1C
06
-6
0A
-4
-5
-7
0C
0A
00
-4
00
-E
09
0A
05
-6
-6
06
-2
02
04
-8
-A
09
-2
0A
-7
-3
04
-17
05
-3
05
-1
00
00
00
03
-A
-A
07
-7
-12
07
-7
-8
0D
03
00
-C
09
-1B
-B
-1D
13
-7
04
-6
0A
-8
01
13
-5
09
-1
-6
-3
-C
-1
-1B
0F
01
-A
05
0E
00
01
02
00
03
05
-6
-3
03
05
04
-7
00
-5
-13
01
-5
05
14
-6
-F
07
-1
-3
05
08
00
-A
-9
07
03
06
-6
06
0A
05
06
00
-8
08
-F
-8
-6
05
04
03
02
0C
01
-7
11
01
00
-7
-A
07
-E
-2
00
14
00
-A
-2
09
-E
-3
06
00
08
05
-7
06
-1
-7
0D
-5
04
-7
03
0E
-D
05
0D
-A
01
00
-3
04
03
-2
04
07
01
03
-9
03
-F
03
02
-9
00
-B
0B
02
06
-1
0A
-1
-D
-7
-6
-8
-B
03
-6
-2
00
08
-A
-2
-5
05
06
08
-2
08
-11
00
00
00
0B
00
17
-7
-7
-5
-7
-9
17
0E
04
07
-D
-1
00
-6
-1
-3
12
07
-9
-C
-2F
0B
-38
-1C
06
09
-D
-E
-7
-9
-7
1C
-F
04
09
-A
00
-2
0C
01
03
04
-12
0C
-F
-3
-8
-2
21
05
-A
02
00
-B
-4
11
00
-7
-2
13
-2
02
04
-3
03
05
08
-D
12
-3
0E
-11
06
07
-7
-10
-5
06
-11
0F
16
-1
-9
-48
47
05
53
-48
04
0A
-6
-49
-8
08
-3E
45
0E
0A
-7
1F
-E
-D
-9
22
01
-4
-C
23
-9
09
23
-16
14
-1
05
09
-E
-5
-13
00
-7
-A
06
14
-7
08
12
-1
12
06
-9
0C
05
-8
08
-6
-4
-A
00
-4
-9
00
-5
01
06
00
02
-C
07
-6
17
-5
05
04
-C
00
00
-9
-C
0F
06
00
02
-3
-1D
00
-9
0B
-A
-3
-7
05
01
-4
-1
04
15
-5
-7
-3
08
-4
-2
03
-3
-9
-B
07
-9
09
04
-9
-4
05
-2
-6
00
-6
04
-4
01
-5
-3
0B
-5
-3
05
-7
-4
-9
04
-1
01
-1
-1
-3
00
-7
-6
-1
-8
04
04
03
-F
-6
-C
00
-16
-C
-15
08
-7
-6
-7
07
03
05
0C
-A
-7
-1
08
-9
0A
05
11
-D
02
-1
05
0B
-D
00
-2
06
-3
-6
00
-11
2A
00
34
-11
09
0A
07
-13
04
09
-11
11
28
-3
-3
0C
-E
-9
-15
09
-2
-A
-12
17
05
09
18
-7
24
08
-9
00
04
0B
21
02
-7
03
-B
-4
-5
0A
0B
00
0F
-2
-1
0A
03
06
0B
0C
09
-1
-B
00
00
-6
09
06
-3
05
-2
00
0E
01
0C
02
00
-A
-3
00
-5
0C
-3
-5
2A
03
0A
-20
42
05
35
-24
-8
-4
-2
-2A
-7
07
-26
1B
38
08
-2
-1
10
-4
0F
03
-A
-7
-4
-9
-3
-7
06
-1
08
03
-7
-21
19
-4
24
-1E
0A
-A
02
-9
-9
-3
-12
1F
00
-1
04
01
-B
-7
02
03
-9
-8
03
00
-4
07
09
-2
09
03
03
-7
0C
-C
13
-F
06
05
-B
-3
00
05
-5
00
07
-4
07
-F
17
-1
26
-8
-8
-4
-10
-15
-8
0D
-18
1B
0F
07
-7
-1
06
09
06
04
00
01
-A
-5
-10
-8
05
-3
-4
03
-A
-3
00
-2
03
-A
-1
01
-1
-A
-2
-6
03
0E
04
00
08
-4
09
-9
12
-D
00
06
06
-5
-B
00
-5
04
-D
-5
-2
04
08
-9
03
05
-1
0A
-E
0F
-9
-7
11
01
0F
-A
08
0D
-6
-7
06
10
-5
00
00
0C
-4
01
13
-15
09
00
00
-1E
28
00
2A
-14
-3
-1
-3
-24
-F
-7
-19
19
1E
09
07
-1E
35
-8
2A
-1F
00
06
14
-1E
00
00
-2C
2E
28
00
-4
-1D
19
05
19
-13
-3
-4
-2
-19
-5
-9
-11
22
10
00
07
10
-3
01
01
0B
05
-C
-A
17
04
07
13
-8
05
06
-8
25
-2
-9
08
22
09
06
-E
20
07
-1
1B
-10
20
-5
08
1A
18
0A
15
13
-1
-8
0E
0D
0A
00
20
-22
35
01
-7
-6
08
06
16
-7
-8
-3
04
02
04
05
05
-A
02
-C
-2
17
-6
03
-F
17
00
08
04
24
-4
09
14
-B
0A
00
-8
0D
-7
02
-A
-1
-E
-8
00
-8
-4
07
-9
06
-6
03
0A
0D
-6
-7
01
-7
-7
05
-A
06
-A
02
0A
-6
-3
-A
03
-8
25
0A
2E
-16
03
01
-4
-13
-6
00
-6
11
0D
06
08
06
07
06
08
03
-9
-B
04
-7
-9
-8
05
08
-F
08
-5
-5
02
-2
08
05
-8
-8
-B
05
-F
-4
09
02
01
02
-7
-2
06
-5
00
00
00
-D
04
-D
03
03
-B
08
-A
00
-1
12
-F
06
-7
14
-7
-8
-6
13
-8
00
0F
-14
16
04
01
04
-9
-2
-12
03
07
06
-9
0A
-E
06
0F
-15
06
05
07
08
16
-A
1F
07
00
09
01
-5
-A
-8
-3
00
22
-4
05
-23
15
-8
16
-27
-6
-1
08
-22
04
08
-26
1E
2E
0A
-2
-8
06
07
-3
-A
-3
-3
00
-B
-10
-7
-9
03
01
-C
-1
0D
05
05
-D
02
-9
-5
-3
06
-9
-7
12
05
04
-2
-2
0B
-8
04
-16
0C
-3
0A
05
17
03
-1
19
-9
0A
04
-8
08
-1
02
14
12
00
02
-7
0D
03
-7
15
-8
17
02
02
08
03
-2
-6
-9
-2
-E
04
-5
03
-9
07
-1
-2
07
0A
10
-7
03
-9
-2
-1
-A
03
11
06
-4
0E
-B
0B
-3
08
00
-7
09
-F
06
-A
-8
-B
-E
09
00
06
12
-C
07
-8
0A
-C
-9
-C
06
07
-8
05
08
-3
07
08
-7
-5
-C
-1
-11
0F
08
09
-6
08
00
08
-11
-6
01
-15
04
00
-C
06
-1
02
-4
00
03
-C
-5
-2
-1
04
08
-3
00
-D
-C
-7
0B
-3
-1
02
-3
09
-6
03
06
-D
08
01
04
-2
-6
-6
-7
0E
-B
13
03
-1
-D
-4
07
-B
-9
-5
0D
-4
04
-1
1A
-12
-B
-17
0B
-2
04
-11
05
02
-A
12
01
13
-A
06
-4
00
00
-6
00
03
-3
09
09
00
-3
00
-1
-7
-4
05
41
-23
03
-19
2D
-3
00
-6
38
-8
07
35
-27
0A
01
01
2E
-27
07
-28
1F
-9
02
07
22
-6
0B
2D
-1E
36
03
-5
-11
0C
0A
10
-15
-8
-8
-4
-8
-7
06
-16
11
06
03
-5
-2
-7
07
05
05
06
-5
00
-A
-8
-9
05
03
05
-2
-3
-4
-A
-8
-10
0E
03
06
-7
-3
-E
09
-9
-B
00
05
05
3D
-26
-9
-23
33
01
-2
00
3A
08
02
27
-38
00
-3
-6
07
-4
-1
09
-5
-B
04
-4
-8
-8
-7
03
08
03
-C
-B
2F
-31
-1
-1A
27
0A
-5
-5
23
-A
00
30
-21
-9
05
08
0D
-B
03
-1D
09
-F
-4
-10
0A
00
-A
11
-10
-A
-5
-5
0B
-10
05
-C
00
-1
03
03
15
-7
-9
16
-C
-B
-9
-2
03
00
-2
09
0A
00
-1
07
03
00
-1
10
-2
07
-4
-A
13
00
-B
04
00
03
-C
-6
10
-A
04
0B
-2
-2
07
00
05
0C
-9
00
-B
-9
-1
01
-1
-7
-B
-5
03
-3
-9
-9
07
-5
-C
0D
0C
-5
-2
-7
00
-C
-A
0B
03
-1
06
00
-6
-A
07
-14
-13
-4
05
-17
-1B
-8
01
-13
1C
-A
-9
-8
-20
07
-9
14
-11
-2
-B
-4
-23
-E
03
-D
15
-D
-3
09
10
-8
-7
03
0C
05
-2
07
15
04
04
10
-1
01
04
-4
-1
-F
03
-A
00
-4
-A
-11
-7
02
05
-4
06
0A
09
0A
0B
-8
00
0E
0E
00
-8
06
04
-C
01
08
-9
10
04
03
02
-5
05
01
-6
04
07
-2
01
-5
07
-7
-1
01
00
-6
-A
-10
-2
-14
-4
-E
-A
-8
03
-7
-D
01
0F
06
-6
-7
17
-11
-4
-24
16
-2
03
-14
20
0A
0A
0E
-12
0C
0A
-C
17
-13
-C
-13
16
-11
00
-D
05
02
05
06
-F
-7
09
-6
34
-2A
06
-23
22
-A
-2
-4
23
-5
07
2D
-1F
-3
-3
-3
1E
-25
00
-21
12
-5
-6
-4
14
-5
00
1D
-9
-6
00
-3
-1
00
04
00
05
02
09
-2
-1
-3
00
04
-2
00
-C
-5
-1
-3
06
-A
-4
-6
-A
02
-7
03
-B
-A
05
-3
09
00
01
00
01
00
00
06
-2
-5
05
-D
-7
0D
-6
-3
-4
-7
-A
02
-1
00
-4
-A
-A
-4
04
01
-B
-8
10
-3
-B
09
0E
03
-2
07
07
-F
02
-5
0D
-6
-3
00
07
05
-1
-3
-11
-4
-4
-7
-D
-1
-B
-8
-B
01
08
-19
14
-B
00
05
-9
-6
07
0E
-15
-9
01
0D
-A
-4
-B
-D
1B
-3
-B
-7
-B
16
00
2E
-15
-2
-8
-3
-A
-D
05
-17
08
0D
-8
05
-30
-2C
-A
-4
-1C
01
-1
-C
-26
06
0A
-2E
20
1F
-7
-7
0F
-15
07
-9
10
-8
-2
-1
05
08
07
17
-7
15
05
07
-F
02
-2
00
-2
00
-8
-8
-E
-2
-1
-9
12
01
-6
03
0A
-16
0A
03
08
-1
-1
-3
05
02
03
11
03
05
-7
08
-13
14
05
15
-1E
00
-1
-C
-1E
-A
01
-25
1F
0C
09
-3
1D
-19
-8
-E
0B
-10
02
-2
1C
00
00
19
-3
0B
-2
04
20
-1D
-9
-24
1A
-3
-4
-9
20
-6
-A
1F
-10
0F
-8
-3
08
-4
09
-16
0C
-10
-9
-F
0A
01
09
08
0A
-7
01
04
-11
03
09
-7
-1C
03
-7
0D
-15
-F
00
-13
14
-11
-2
00
-11
-F
-8
-4
-6
-3
-3
-7
-18
01
-9
-19
06
18
-B
00
-7
01
-B
-3
-5
-2
-C
05
-4
-1
-A
-5
0C
01
-9
-3
-5
03
02
0A
01
06
03
02
-8
04
-5
-1
-2
-4
06
-7
-C
10
-3
02
-D
-8
-5
05
01
04
01
00
-3
-1
-1
-9
-3
-17
06
-16
-4
-C
05
-18
-5
-1
-9
-5
08
02
08
-D
0B
-F
-1
00
-3
-D
-3
00
0C
-7
-7
0D
00
16
-2
-B
12
-12
05
0F
16
-9
-3
-9
13
-A
-3
16
-3
25
01
-9
-41
24
-4
39
-3C
-F
09
-8
-46
08
-A
-40
36
2A
07
09
-17
17
03
28
-D
-6
-2
01
-1F
03
-7
-29
23
08
08
07
-A
0B
08
04
-10
05
-1
-7
-18
-E
-8
-10
0D
-C
02
0A
-E
0E
-1
1E
-3
-2
-7
00
-A
03
-6
02
00
0B
05
03
-1C
0A
0A
1D
-27
04
00
-2
-24
-7
02
-1B
2A
09
04
05
08
-7
-E
-1
10
-6
03
-A
0E
-1
0B
00
-2
-1
-B
01
0A
-3
-9
09
09
-D
-7
-2
05
-9
-9
08
-A
0B
00
-1
-11
-2
-4
00
-1A
-C
01
-14
-D
-5
-A
-E
1D
-14
00
05
-B
02
08
-3
-8
-1
-9
-7
-2
00
-C
-5
00
-5
-C
-2
01
07
-3
0C
04
-A
06
02
-E
-7
03
-7
08
1E
-1
-5
-8
04
-4
0F
-4
04
-7
01
-8
-1
04
04
07
-7
-5
02
00
0A
00
0B
-8
-8
-1
0E
00
-8
00
00
-4
-A
04
01
-9
-2
-2
0B
-2
-2
07
-9
05
-9
08
04
0B
-11
07
-8
20
-21
-9
-13
18
-10
-C
00
1E
05
05
1A
-9
05
00
-8
13
-4
-E
05
07
0A
-3
07
11
05
-8
0B
01
08
-A
-9
-9
28
-2
35
-4
01
-1
00
-B
-C
08
-12
0F
12
-9
00
-1F
41
00
46
-26
03
-2
-3
-28
-A
05
-35
2C
29
-1
0A
-12
0C
-8
12
01
00
03
06
-C
00
-A
-16
18
10
03
0A
0E
00
09
-1
08
-5
-C
-C
0C
-8
-2
01
05
-4
-4
-7
0B
07
-A
0D
18
05
-B
-5
13
04
-7
11
-8
-2
01
03
05
02
00
05
05
-5
-A
-B
-6
04
01
07
-8
0B
-1
03
0F
-5
-6
07
11
04
-4
-A
0D
-E
04
14
04
0C
-C
-7
12
00
-7
-4
19
01
05
-6
06
00
00
0F
-10
-B
-7
-4
-1
00
-5
04
12
-6
-7
-6
10
-2
05
05
-1
0A
08
05
12
-C
-1
07
07
-5
05
00
06
-2
-2
18
-4
-6
00
-9
-3
25
09
24
-F
01
-2
-9
-D
-2
05
-3
19
12
00
01
0C
0A
00
-3
-2
-8
-5
00
04
01
-8
0C
02
-3
-2
-2
0A
08
-1
05
15
03
02
-8
05
01
07
08
-8
-8
-A
-7
-6
-3
00
-1
-C
01
05
-F
04
-F
01
08
0A
00
02
-B
10
00
06
10
0F
-8
01
06
12
-9
02
02
-A
0D
-4
-D
07
00
-1
08
0E
-1
-8
-6
16
-1
-3
0F
-4
07
-C
-4
-C
24
08
24
-20
02
-1
01
-16
-6
-9
-12
17
07
-8
-B
01
0C
08
2E
-6
0A
-5
06
-7
-7
08
-E
05
1A
05
03
-2
11
-5
10
00
-10
09
-9
-11
-D
-5
01
15
01
00
08
-4
08
01
-2
08
05
05
03
03
-3
03
-1
03
-8
-4
-7
03
07
-5
-4
-B
-E
-5
10
-D
04
00
-E
10
-D
04
-5
-E
09
09
16
-3
04
04
-1
-E
07
-A
-D
09
-2
01
00
0E
13
07
04
03
-C
-8
-6
03
-E
08
-1
-4
02
-A
-1
14
-13
-8
-14
11
-C
00
05
0E
-7
02
18
-6
-9
00
05
07
00
05
-1
02
-2
00
-D
05
03
-9
00
-4
00
-C
01
11
-9
-9
08
-4
00
02
-3
08
-A
03
06
-11
-1
-6
04
-8
21
02
1A
01
-9
00
-2
-10
-A
-4
-4
18
05
-7
-5
-4
-2
-5
06
-5
08
-6
-1
03
-8
-3
10
05
06
06
09
0B
07
08
00
0E
02
03
03
14
-F
08
0C
-2
-B
-1
-1
-6
0F
06
10
-9
00
-E
-5
-7
05
-5
-4
-1
-D
06
01
-7
05
09
0B
-1
00
00
08
-E
-B
-9
04
0B
-F
00
-1
0C
-C
07
08
1A
-5
00
-C
05
-1
-3
12
-D
0C
-B
-7
-E
-1D
08
-33
-10
-1
00
08
-8
-6
-1
-F
19
-3
05
-3
08
-23
04
-36
0C
-3
-5
-B
07
05
05
0A
0C
18
-7
-9
-29
1B
-1
14
-29
01
-5
00
-20
04
-9
-2C
2C
07
-3
00
0C
-C
-9
09
04
-3
-4
05
00
00
-2
02
00
-B
-B
-B
00
-8
-2
-16
-2
01
-4
0E
-1
02
00
-2
06
-13
09
08
-19
0B
-3
-1
-1B
-D
02
02
-28
01
03
-1C
31
-B
-7
-4
16
-14
-2
-13
24
-A
-B
-8
13
01
-6
19
-1A
08
00
-7
1A
-26
-7
-20
1E
-3
-B
0A
1C
06
-4
23
-11
-1
05
00
-18
07
00
-12
-E
-B
-B
-11
-19
00
00
-F
19
-1
01
-3
10
-3
08
-8
04
-B
04
-C
0E
03
-B
0F
01
04
-1
-7
00
00
08
-D
-2
-4
-A
02
07
-4
04
07
04
11
06
05
04
-2
-7
07
-8
-3
01
-5
0C
-5
08
-1
06
-3
07
08
00
0C
02
0E
02
-5
06
05
00
00
07
-1
0D
-4
08
02
05
00
-5
0B
-D
06
00
-8
08
01
-4
-4
0B
-1
-3
-9
00
04
05
06
-7
-C
-1
06
-D
-4
0A
-2
13
00
0A
01
04
-14
05
-B
05
05
06
03
00
-A
00
0B
08
05
08
-3
-1A
-1C
07
-1E
-28
00
01
-1
-17
-6
-B
-22
29
-B
-6
00
-44
02
04
-1
-40
00
04
-D
-34
-E
-9
-44
3F
00
08
00
01
-14
04
-13
17
-8
-A
0A
02
-9
-7
05
-E
-A
03
-1
06
-8
01
-8
05
-A
-3
01
02
-D
00
12
-15
00
-3
00
-10
0C
-4
0E
-1
03
-C
-2
-D
07
-C
-11
05
-17
-6
-3
-21
-10
08
-1B
-F
-7
02
-E
-17
-8
01
-1C
12
-A
03
07
05
-2
-5
00
05
00
-5
-3
0B
-C
-7
07
-5
-2
04
0B
08
-14
00
01
0E
-9
-9
0A
03
00
06
0B
-A
-14
03
-C
07
06
-5
00
07
03
-9
-11
00
09
04
00
-5
-1
-9
-8
-9
02
-1
0B
-9
01
-A
-10
-F
-8
09
-12
0B
0D
07
-1
10
-27
03
-1D
10
-A
07
00
0C
-9
-2
12
-11
-E
08
-9
-2
00
09
0D
-5
07
-6
-6
0A
00
-B
0C
-2
06
-A
-8
-3
08
03
00
03
-6
06
-6
09
00
-2
03
-4
08
-A
-7
-6
04
09
08
0A
-B
-C
-6
00
-7
00
-3
03
-1
06
-7
04
-5
-E
-3
19
-F
03
07
0E
09
04
13
-C
03
06
-6
0D
06
04
00
00
00
-5
-2
08
05
0A
03
08
-D
-B
-8
1C
-1A
00
-18
0A
04
06
01
25
-3
-2
29
-22
-10
0A
-4
-F
1E
08
05
-1A
-5
05
03
-9
03
04
-C
02
-13
08
04
07
05
-C
0E
0D
-10
03
-4
00
-B
-2
10
-B
06
-A
-D
0E
-2
03
-6
1D
03
-B
-12
18
-D
00
0B
-8
01
-C
00
-C
-2
00
01
-F
-7
00
-1
-1
-5
03
-5
0C
-14
-3
06
-D
0D
-A
-4
-13
07
-5
0B
-2
00
06
03
13
-E
01
02
-7
0E
-3
0F
-D
-9
-5
-D
-2
01
-1
-2
0E
-2
04
-3
-6
01
-8
03
-2
-8
-2
06
09
04
-6
-3
05
-3
00
07
-8
02
0A
-5
-C
-7
-7
03
-4
-1
-4
-7
04
-6
06
01
28
-26
-9
-1C
1B
-11
05
09
1C
-8
08
1C
-1F
07
04
-8
-6
08
-9
14
-9
-1
-6
-A
07
00
02
-A
02
-C
-A
-6
0A
-5
-7
-6
10
-A
-3
-2
07
-E
01
00
00
00
04
03
11
07
-2
-2
0D
-1
-7
-5
-1
-5
09
00
06
-3
07
-7
11
00
-6
0B
15
-A
-C
00
01
-B
07
05
06
08
-5
00
-12
03
06
11
-4
-4
-6
0C
05
-6
04
-3
0D
-13
-7
01
16
-C
00
-10
07
-8
01
-D
0B
-1
-3
1D
-8
05
0A
05
-17
-12
-9
-12
-B
-6
-5
-2
-8
-9
-4
02
06
-10
05
02
22
-5
05
-7
26
04
-8
